#include "magic_wand_model_data.h"


// We need to keep the data array aligned on some architectures.

#ifdef __has_attribute

#define HAVE_ATTRIBUTE(x) __has_attribute(x)

#else

#define HAVE_ATTRIBUTE(x) 0

#endif

#if HAVE_ATTRIBUTE(aligned) || (defined(__GNUC__) && !defined(__clang__))

#define DATA_ALIGN_ATTRIBUTE __attribute__((aligned(4)))

#else

#define DATA_ALIGN_ATTRIBUTE

#endif


const unsigned char g_magic_wand_model_data[] DATA_ALIGN_ATTRIBUTE = {

  0x08, 0x00, 0x00, 0x00, 0x54, 0x46, 0x4c, 0x33, 0x62, 0xff, 0xff, 0xff,
  0x03, 0x00, 0x00, 0x00, 0x10, 0x00, 0x00, 0x00, 0x24, 0x00, 0x00, 0x00,
  0x78, 0x00, 0x00, 0x00, 0x24, 0x00, 0x00, 0x00, 0x05, 0x00, 0x00, 0x00,
  0x78, 0x05, 0x00, 0x00, 0xb0, 0x04, 0x00, 0x00, 0xe0, 0x02, 0x00, 0x00,
  0x60, 0x02, 0x00, 0x00, 0x54, 0x01, 0x00, 0x00, 0x01, 0x00, 0x00, 0x00,
  0x78, 0x00, 0x00, 0x00, 0x13, 0x00, 0x00, 0x00, 0x18, 0x30, 0x00, 0x00,
  0x14, 0x30, 0x00, 0x00, 0x20, 0x2f, 0x00, 0x00, 0xa8, 0x2e, 0x00, 0x00,
  0x3c, 0x2e, 0x00, 0x00, 0xec, 0x11, 0x00, 0x00, 0x98, 0x10, 0x00, 0x00,
  0xbc, 0x0e, 0x00, 0x00, 0x60, 0x06, 0x00, 0x00, 0xfc, 0x05, 0x00, 0x00,
  0x78, 0x05, 0x00, 0x00, 0xec, 0x2f, 0x00, 0x00, 0xe8, 0x2f, 0x00, 0x00,
  0xe4, 0x2f, 0x00, 0x00, 0xe0, 0x2f, 0x00, 0x00, 0xdc, 0x2f, 0x00, 0x00,
  0xd8, 0x2f, 0x00, 0x00, 0xd4, 0x2f, 0x00, 0x00, 0xd0, 0x2f, 0x00, 0x00,
  0x0f, 0x00, 0x00, 0x00, 0x4d, 0x4c, 0x49, 0x52, 0x20, 0x43, 0x6f, 0x6e,
  0x76, 0x65, 0x72, 0x74, 0x65, 0x64, 0x2e, 0x00, 0x00, 0x00, 0x0e, 0x00,
  0x18, 0x00, 0x04, 0x00, 0x08, 0x00, 0x0c, 0x00, 0x10, 0x00, 0x14, 0x00,
  0x0e, 0x00, 0x00, 0x00, 0x14, 0x00, 0x00, 0x00, 0x5c, 0x00, 0x00, 0x00,
  0x60, 0x00, 0x00, 0x00, 0x64, 0x00, 0x00, 0x00, 0x84, 0x00, 0x00, 0x00,
  0x12, 0x00, 0x00, 0x00, 0x48, 0x2f, 0x00, 0x00, 0xe4, 0x2e, 0x00, 0x00,
  0x3c, 0x2e, 0x00, 0x00, 0xd8, 0x2d, 0x00, 0x00, 0x70, 0x2d, 0x00, 0x00,
  0x1c, 0x11, 0x00, 0x00, 0xc0, 0x0f, 0x00, 0x00, 0xe4, 0x0d, 0x00, 0x00,
  0xa0, 0x05, 0x00, 0x00, 0x3c, 0x05, 0x00, 0x00, 0xb0, 0x04, 0x00, 0x00,
  0xe8, 0x03, 0x00, 0x00, 0x38, 0x03, 0x00, 0x00, 0xa4, 0x02, 0x00, 0x00,
  0x10, 0x02, 0x00, 0x00, 0x90, 0x01, 0x00, 0x00, 0xfc, 0x00, 0x00, 0x00,
  0x80, 0x00, 0x00, 0x00, 0x01, 0x00, 0x00, 0x00, 0x00, 0x00, 0x00, 0x00,
  0x01, 0x00, 0x00, 0x00, 0x11, 0x00, 0x00, 0x00, 0x08, 0x00, 0x00, 0x00,
  0x1c, 0x04, 0x00, 0x00, 0x58, 0x03, 0x00, 0x00, 0xc8, 0x02, 0x00, 0x00,
  0x24, 0x02, 0x00, 0x00, 0xac, 0x01, 0x00, 0x00, 0x10, 0x01, 0x00, 0x00,
  0x94, 0x00, 0x00, 0x00, 0x10, 0x00, 0x00, 0x00, 0x04, 0x00, 0x00, 0x00,
  0x6d, 0x61, 0x69, 0x6e, 0x00, 0x00, 0x00, 0x00, 0x8e, 0xff, 0xff, 0xff,
  0x00, 0x00, 0x00, 0x09, 0x04, 0x00, 0x00, 0x00, 0x1c, 0x00, 0x00, 0x00,
  0x10, 0x00, 0x00, 0x00, 0x04, 0x00, 0x00, 0x00, 0x0a, 0xd2, 0xff, 0xff,
  0x00, 0x00, 0x80, 0x3f, 0x01, 0x00, 0x00, 0x00, 0x11, 0x00, 0x00, 0x00,
  0x01, 0x00, 0x00, 0x00, 0x10, 0x00, 0x00, 0x00, 0xf6, 0xfb, 0xff, 0xff,
  0x00, 0x00, 0x00, 0x19, 0x01, 0x00, 0x00, 0x00, 0x8a, 0xd1, 0xff, 0xff,
  0x10, 0x00, 0x00, 0x00, 0x12, 0x00, 0x00, 0x00, 0x14, 0x00, 0x00, 0x00,
  0x20, 0x00, 0x00, 0x00, 0x02, 0x00, 0x00, 0x00, 0x01, 0x00, 0x00, 0x00,
  0x04, 0x00, 0x00, 0x00, 0x08, 0x00, 0x00, 0x00, 0x49, 0x64, 0x65, 0x6e,
  0x74, 0x69, 0x74, 0x79, 0x00, 0x00, 0x00, 0x00, 0xc4, 0xd1, 0xff, 0xff,
  0x00, 0x00, 0x0e, 0x00, 0x18, 0x00, 0x08, 0x00, 0x0c, 0x00, 0x10, 0x00,
  0x07, 0x00, 0x14, 0x00, 0x0e, 0x00, 0x00, 0x00, 0x00, 0x00, 0x00, 0x08,
  0x03, 0x00, 0x00, 0x00, 0x18, 0x00, 0x00, 0x00, 0x0c, 0x00, 0x00, 0x00,
  0x04, 0x00, 0x00, 0x00, 0x98, 0xd1, 0xff, 0xff, 0x01, 0x00, 0x00, 0x00,
  0x10, 0x00, 0x00, 0x00, 0x03, 0x00, 0x00, 0x00, 0x0f, 0x00, 0x00, 0x00,
  0x05, 0x00, 0x00, 0x00, 0x02, 0x00, 0x00, 0x00, 0x02, 0xd2, 0xff, 0xff,
  0x10, 0x00, 0x00, 0x00, 0x11, 0x00, 0x00, 0x00, 0x14, 0x00, 0x00, 0x00,
  0x30, 0x00, 0x00, 0x00, 0x02, 0x00, 0x00, 0x00, 0x01, 0x00, 0x00, 0x00,
  0x04, 0x00, 0x00, 0x00, 0x1a, 0x00, 0x00, 0x00, 0x73, 0x65, 0x71, 0x75,
  0x65, 0x6e, 0x74, 0x69, 0x61, 0x6c, 0x2f, 0x64, 0x65, 0x6e, 0x73, 0x65,
  0x5f, 0x31, 0x2f, 0x42, 0x69, 0x61, 0x73, 0x41, 0x64, 0x64, 0x00, 0x00,
  0xf4, 0xd1, 0xff, 0xff, 0xd6, 0xfd, 0xff, 0xff, 0x00, 0x00, 0x00, 0x08,
  0x03, 0x00, 0x00, 0x00, 0x24, 0x00, 0x00, 0x00, 0x18, 0x00, 0x00, 0x00,
  0x0c, 0x00, 0x00, 0x00, 0x00, 0x00, 0x06, 0x00, 0x08, 0x00, 0x07, 0x00,
  0x06, 0x00, 0x00, 0x00, 0x00, 0x00, 0x00, 0x01, 0x01, 0x00, 0x00, 0x00,
  0x0f, 0x00, 0x00, 0x00, 0x03, 0x00, 0x00, 0x00, 0x0e, 0x00, 0x00, 0x00,
  0x04, 0x00, 0x00, 0x00, 0x01, 0x00, 0x00, 0x00, 0xfe, 0xfc, 0xff, 0xff,
  0x00, 0x00, 0x00, 0x09, 0x01, 0x00, 0x00, 0x00, 0x92, 0xd2, 0xff, 0xff,
  0x10, 0x00, 0x00, 0x00, 0x10, 0x00, 0x00, 0x00, 0x14, 0x00, 0x00, 0x00,
  0x2c, 0x00, 0x00, 0x00, 0x02, 0x00, 0x00, 0x00, 0x01, 0x00, 0x00, 0x00,
  0x10, 0x00, 0x00, 0x00, 0x15, 0x00, 0x00, 0x00, 0x73, 0x65, 0x71, 0x75,
  0x65, 0x6e, 0x74, 0x69, 0x61, 0x6c, 0x2f, 0x64, 0x65, 0x6e, 0x73, 0x65,
  0x2f, 0x52, 0x65, 0x6c, 0x75, 0x00, 0x00, 0x00, 0xd8, 0xd2, 0xff, 0xff,
  0x00, 0x00, 0x0a, 0x00, 0x10, 0x00, 0x04, 0x00, 0x08, 0x00, 0x0c, 0x00,
  0x0a, 0x00, 0x00, 0x00, 0x02, 0x00, 0x00, 0x00, 0x10, 0x00, 0x00, 0x00,
  0x04, 0x00, 0x00, 0x00, 0x01, 0x00, 0x00, 0x00, 0x0e, 0x00, 0x00, 0x00,
  0x02, 0x00, 0x00, 0x00, 0x0d, 0x00, 0x00, 0x00, 0x03, 0x00, 0x00, 0x00,
  0x7a, 0xfd, 0xff, 0xff, 0x00, 0x00, 0x00, 0x16, 0x01, 0x00, 0x00, 0x00,
  0x0e, 0xd3, 0xff, 0xff, 0x10, 0x00, 0x00, 0x00, 0x0f, 0x00, 0x00, 0x00,
  0x14, 0x00, 0x00, 0x00, 0x30, 0x00, 0x00, 0x00, 0x02, 0x00, 0x00, 0x00,
  0x01, 0x00, 0x00, 0x00, 0x70, 0x00, 0x00, 0x00, 0x1a, 0x00, 0x00, 0x00,
  0x73, 0x65, 0x71, 0x75, 0x65, 0x6e, 0x74, 0x69, 0x61, 0x6c, 0x2f, 0x66,
  0x6c, 0x61, 0x74, 0x74, 0x65, 0x6e, 0x2f, 0x52, 0x65, 0x73, 0x68, 0x61,
  0x70, 0x65, 0x00, 0x00, 0x00, 0xd3, 0xff, 0xff, 0xe2, 0xfe, 0xff, 0xff,
  0x00, 0x00, 0x00, 0x05, 0x01, 0x00, 0x00, 0x00, 0x38, 0x00, 0x00, 0x00,
  0x2c, 0x00, 0x00, 0x00, 0x14, 0x00, 0x00, 0x00, 0x00, 0x00, 0x0e, 0x00,
  0x14, 0x00, 0x00, 0x00, 0x10, 0x00, 0x0c, 0x00, 0x08, 0x00, 0x04, 0x00,
  0x0e, 0x00, 0x00, 0x00, 0x03, 0x00, 0x00, 0x00, 0x01, 0x00, 0x00, 0x00,
  0x03, 0x00, 0x00, 0x00, 0x01, 0x00, 0x00, 0x00, 0x01, 0x00, 0x00, 0x00,
  0x0d, 0x00, 0x00, 0x00, 0x01, 0x00, 0x00, 0x00, 0x0c, 0x00, 0x00, 0x00,
  0x9e, 0xd3, 0xff, 0xff, 0x10, 0x00, 0x00, 0x00, 0x0e, 0x00, 0x00, 0x00,
  0x1c, 0x00, 0x00, 0x00, 0x40, 0x00, 0x00, 0x00, 0x04, 0x00, 0x00, 0x00,
  0x01, 0x00, 0x00, 0x00, 0x07, 0x00, 0x00, 0x00, 0x01, 0x00, 0x00, 0x00,
  0x10, 0x00, 0x00, 0x00, 0x22, 0x00, 0x00, 0x00, 0x73, 0x65, 0x71, 0x75,
  0x65, 0x6e, 0x74, 0x69, 0x61, 0x6c, 0x2f, 0x6d, 0x61, 0x78, 0x5f, 0x70,
  0x6f, 0x6f, 0x6c, 0x69, 0x6e, 0x67, 0x32, 0x64, 0x5f, 0x31, 0x2f, 0x4d,
  0x61, 0x78, 0x50, 0x6f, 0x6f, 0x6c, 0x00, 0x00, 0xa0, 0xd3, 0xff, 0xff,
  0xc2, 0xfe, 0xff, 0xff, 0x00, 0x00, 0x00, 0x01, 0x24, 0x00, 0x00, 0x00,
  0x18, 0x00, 0x00, 0x00, 0x04, 0x00, 0x00, 0x00, 0xb4, 0xfe, 0xff, 0xff,
  0x01, 0x00, 0x00, 0x00, 0x01, 0x00, 0x00, 0x00, 0x00, 0x00, 0x00, 0x01,
  0x01, 0x00, 0x00, 0x00, 0x0c, 0x00, 0x00, 0x00, 0x03, 0x00, 0x00, 0x00,
  0x0b, 0x00, 0x00, 0x00, 0x07, 0x00, 0x00, 0x00, 0x09, 0x00, 0x00, 0x00,
  0x2e, 0xd4, 0xff, 0xff, 0x10, 0x00, 0x00, 0x00, 0x0d, 0x00, 0x00, 0x00,
  0x1c, 0x00, 0x00, 0x00, 0x2c, 0x00, 0x00, 0x00, 0x04, 0x00, 0x00, 0x00,
  0x01, 0x00, 0x00, 0x00, 0x15, 0x00, 0x00, 0x00, 0x01, 0x00, 0x00, 0x00,
  0x10, 0x00, 0x00, 0x00, 0x0c, 0x00, 0x00, 0x00, 0x74, 0x66, 0x6c, 0x2e,
  0x63, 0x6f, 0x6e, 0x76, 0x5f, 0x32, 0x64, 0x31, 0x00, 0x00, 0x00, 0x00,
  0x74, 0xd4, 0xff, 0xff, 0x00, 0x00, 0x0e, 0x00, 0x1a, 0x00, 0x08, 0x00,
  0x0c, 0x00, 0x10, 0x00, 0x07, 0x00, 0x14, 0x00, 0x0e, 0x00, 0x00, 0x00,
  0x00, 0x00, 0x00, 0x05, 0x01, 0x00, 0x00, 0x00, 0x3c, 0x00, 0x00, 0x00,
  0x30, 0x00, 0x00, 0x00, 0x14, 0x00, 0x00, 0x00, 0x00, 0x00, 0x0e, 0x00,
  0x18, 0x00, 0x17, 0x00, 0x10, 0x00, 0x0c, 0x00, 0x08, 0x00, 0x04, 0x00,
  0x0e, 0x00, 0x00, 0x00, 0x03, 0x00, 0x00, 0x00, 0x03, 0x00, 0x00, 0x00,
  0x03, 0x00, 0x00, 0x00, 0x03, 0x00, 0x00, 0x00, 0x00, 0x00, 0x00, 0x01,
  0x01, 0x00, 0x00, 0x00, 0x0b, 0x00, 0x00, 0x00, 0x01, 0x00, 0x00, 0x00,
  0x0a, 0x00, 0x00, 0x00, 0x46, 0xff, 0xff, 0xff, 0x00, 0x00, 0x00, 0x11,
  0x01, 0x00, 0x00, 0x00, 0xda, 0xd4, 0xff, 0xff, 0x10, 0x00, 0x00, 0x00,
  0x0c, 0x00, 0x00, 0x00, 0x1c, 0x00, 0x00, 0x00, 0x40, 0x00, 0x00, 0x00,
  0x04, 0x00, 0x00, 0x00, 0x01, 0x00, 0x00, 0x00, 0x15, 0x00, 0x00, 0x00,
  0x01, 0x00, 0x00, 0x00, 0x08, 0x00, 0x00, 0x00, 0x20, 0x00, 0x00, 0x00,
  0x73, 0x65, 0x71, 0x75, 0x65, 0x6e, 0x74, 0x69, 0x61, 0x6c, 0x2f, 0x6d,
  0x61, 0x78, 0x5f, 0x70, 0x6f, 0x6f, 0x6c, 0x69, 0x6e, 0x67, 0x32, 0x64,
  0x2f, 0x4d, 0x61, 0x78, 0x50, 0x6f, 0x6f, 0x6c, 0x00, 0x00, 0x00, 0x00,
  0x34, 0xd5, 0xff, 0xff, 0x00, 0x00, 0x0e, 0x00, 0x14, 0x00, 0x00, 0x00,
  0x08, 0x00, 0x0c, 0x00, 0x07, 0x00, 0x10, 0x00, 0x0e, 0x00, 0x00, 0x00,
  0x00, 0x00, 0x00, 0x01, 0x30, 0x00, 0x00, 0x00, 0x24, 0x00, 0x00, 0x00,
  0x10, 0x00, 0x00, 0x00, 0x0c, 0x00, 0x10, 0x00, 0x00, 0x00, 0x04, 0x00,
  0x08, 0x00, 0x0f, 0x00, 0x0c, 0x00, 0x00, 0x00, 0x01, 0x00, 0x00, 0x00,
  0x01, 0x00, 0x00, 0x00, 0x00, 0x00, 0x00, 0x01, 0x01, 0x00, 0x00, 0x00,
  0x0a, 0x00, 0x00, 0x00, 0x03, 0x00, 0x00, 0x00, 0x00, 0x00, 0x00, 0x00,
  0x06, 0x00, 0x00, 0x00, 0x08, 0x00, 0x00, 0x00, 0x00, 0x00, 0x0a, 0x00,
  0x0c, 0x00, 0x07, 0x00, 0x00, 0x00, 0x08, 0x00, 0x0a, 0x00, 0x00, 0x00,
  0x00, 0x00, 0x00, 0x03, 0x01, 0x00, 0x00, 0x00, 0x9e, 0xd5, 0xff, 0xff,
  0x10, 0x00, 0x00, 0x00, 0x0b, 0x00, 0x00, 0x00, 0x1c, 0x00, 0x00, 0x00,
  0x28, 0x00, 0x00, 0x00, 0x04, 0x00, 0x00, 0x00, 0x01, 0x00, 0x00, 0x00,
  0x40, 0x00, 0x00, 0x00, 0x03, 0x00, 0x00, 0x00, 0x08, 0x00, 0x00, 0x00,
  0x0b, 0x00, 0x00, 0x00, 0x74, 0x66, 0x6c, 0x2e, 0x63, 0x6f, 0x6e, 0x76,
  0x5f, 0x32, 0x64, 0x00, 0x88, 0xd5, 0xff, 0xff, 0x7e, 0xd6, 0xff, 0xff,
  0x04, 0x00, 0x00, 0x00, 0x40, 0x00, 0x00, 0x00, 0x37, 0x2a, 0x41, 0xbe,
  0x1a, 0xaa, 0xdc, 0xbd, 0x9a, 0xae, 0x18, 0xbe, 0x5f, 0xb3, 0xf2, 0x3d,
  0x2c, 0x76, 0xc7, 0xbe, 0x51, 0xce, 0x13, 0xbe, 0x22, 0xe5, 0x0f, 0xbe,
  0x97, 0x18, 0x96, 0xbe, 0xe2, 0xe3, 0x83, 0xbd, 0x47, 0x7b, 0x59, 0xbd,
  0x8b, 0x89, 0x50, 0xbe, 0xad, 0xee, 0xbe, 0xbd, 0xa1, 0x15, 0x0b, 0xbf,
  0xed, 0x76, 0x70, 0xbe, 0x20, 0x30, 0x15, 0xbe, 0x54, 0x21, 0x1e, 0xbf,
  0x26, 0xd6, 0xff, 0xff, 0x10, 0x00, 0x00, 0x00, 0x0a, 0x00, 0x00, 0x00,
  0x10, 0x00, 0x00, 0x00, 0x20, 0x00, 0x00, 0x00, 0x01, 0x00, 0x00, 0x00,
  0x10, 0x00, 0x00, 0x00, 0x0d, 0x00, 0x00, 0x00, 0x73, 0x74, 0x64, 0x2e,
  0x63, 0x6f, 0x6e, 0x73, 0x74, 0x61, 0x6e, 0x74, 0x31, 0x00, 0x00, 0x00,
  0x08, 0xd6, 0xff, 0xff, 0xfe, 0xd6, 0xff, 0xff, 0x04, 0x00, 0x00, 0x00,
  0x20, 0x00, 0x00, 0x00, 0xce, 0xdd, 0x81, 0xbf, 0x26, 0x6f, 0x34, 0xbf,
  0xde, 0xe3, 0x8e, 0xbf, 0x0c, 0x5c, 0xda, 0x3d, 0x64, 0xc3, 0x02, 0x3d,
  0x81, 0x3e, 0x7c, 0xbf, 0x86, 0x92, 0x9f, 0xbe, 0x8a, 0x85, 0x85, 0xbf,
  0x86, 0xd6, 0xff, 0xff, 0x10, 0x00, 0x00, 0x00, 0x09, 0x00, 0x00, 0x00,
  0x10, 0x00, 0x00, 0x00, 0x20, 0x00, 0x00, 0x00, 0x01, 0x00, 0x00, 0x00,
  0x08, 0x00, 0x00, 0x00, 0x0c, 0x00, 0x00, 0x00, 0x73, 0x74, 0x64, 0x2e,
  0x63, 0x6f, 0x6e, 0x73, 0x74, 0x61, 0x6e, 0x74, 0x00, 0x00, 0x00, 0x00,
  0x68, 0xd6, 0xff, 0xff, 0x5e, 0xd7, 0xff, 0xff, 0x04, 0x00, 0x00, 0x00,
  0x00, 0x08, 0x00, 0x00, 0xec, 0xdd, 0x76, 0xbd, 0x42, 0x8d, 0x49, 0x3c,
  0xff, 0x4b, 0x87, 0x3c, 0xdd, 0x11, 0x0c, 0x3d, 0xab, 0x68, 0x8f, 0xbe,
  0xd7, 0x0f, 0xb2, 0xbd, 0x70, 0x12, 0x04, 0xbe, 0xa6, 0x7e, 0x1c, 0xbe,
  0xc0, 0xcb, 0x5e, 0xbe, 0xe1, 0x1d, 0xd5, 0xbd, 0x2b, 0x9f, 0x18, 0x3d,
  0x17, 0x5f, 0xc1, 0x3c, 0x63, 0xfa, 0x1e, 0xbe, 0xae, 0xeb, 0x3d, 0xbe,
  0xc5, 0xc3, 0xbf, 0xbe, 0xd5, 0x25, 0x1d, 0xbe, 0x4f, 0xba, 0x88, 0xbe,
  0x8e, 0x65, 0x9c, 0xbc, 0x2a, 0x1d, 0x00, 0x3e, 0x6b, 0x2f, 0xf1, 0x3c,
  0xda, 0xd2, 0xdb, 0xbd, 0x39, 0x8d, 0x8c, 0xbe, 0x14, 0xa8, 0x88, 0xbe,
  0xfb, 0xfd, 0x35, 0xbe, 0x02, 0xb6, 0xe4, 0xbc, 0x8f, 0x37, 0x01, 0x3e,
  0x3c, 0x30, 0x30, 0xbe, 0x2b, 0x14, 0x50, 0x3d, 0x3b, 0x25, 0xeb, 0xbd,
  0xbe, 0xb8, 0x9c, 0x3c, 0xc7, 0xd0, 0x33, 0xbd, 0x1e, 0xe2, 0xe2, 0xbd,
  0xc2, 0x65, 0x5f, 0xbe, 0xb7, 0x15, 0xe8, 0x3d, 0x3d, 0x7d, 0xdc, 0x3d,
  0x1b, 0x09, 0x48, 0x3e, 0x47, 0x04, 0x00, 0x3d, 0xf2, 0xec, 0xa1, 0xbc,
  0xa1, 0xd9, 0x9b, 0x3b, 0xea, 0x11, 0x04, 0xbd, 0x4a, 0xd0, 0x79, 0xbd,
  0x17, 0x79, 0x50, 0xbe, 0x05, 0x42, 0x00, 0x3f, 0x69, 0x02, 0x1d, 0x3e,
  0xca, 0x42, 0x1b, 0x3e, 0x35, 0x91, 0x96, 0xbd, 0x1a, 0xf8, 0x55, 0xbc,
  0x88, 0x25, 0xe6, 0xbc, 0x54, 0x5e, 0xb7, 0xbe, 0x1d, 0x1d, 0xf0, 0xbe,
  0x6b, 0x51, 0x0a, 0xbe, 0x62, 0xcc, 0xd6, 0xbd, 0x35, 0xd3, 0x21, 0x3e,
  0x2c, 0xbf, 0x1d, 0xbd, 0x47, 0x5b, 0xdd, 0xbc, 0x73, 0x88, 0x8b, 0x3b,
  0x4a, 0xce, 0xd4, 0xbe, 0x2b, 0x08, 0xea, 0xbe, 0x99, 0x38, 0xbb, 0xbb,
  0x5b, 0x42, 0x3b, 0xbe, 0xa6, 0x7b, 0x33, 0x3e, 0x53, 0xd6, 0x58, 0xbd,
  0x53, 0x46, 0xb7, 0xbd, 0x66, 0x41, 0x09, 0xbd, 0x70, 0xac, 0xa1, 0x3c,
  0x4d, 0x4e, 0x37, 0x3d, 0xd1, 0xe2, 0xa5, 0x3d, 0x5c, 0x42, 0x00, 0x3e,
  0xd2, 0xff, 0x95, 0xbe, 0x86, 0x65, 0x79, 0xbd, 0xcc, 0x3e, 0xf2, 0xbd,
  0xb1, 0xf0, 0x63, 0xbe, 0x25, 0x7c, 0x42, 0x3d, 0xfe, 0x96, 0x8f, 0xbe,
  0xac, 0xee, 0xe5, 0x3d, 0x38, 0x40, 0x71, 0xbd, 0x10, 0x35, 0x7c, 0xbd,
  0x6c, 0xc7, 0xc2, 0xbe, 0x1e, 0x86, 0xf8, 0x3d, 0x0f, 0xaf, 0xe5, 0xbe,
  0xe4, 0xc3, 0x76, 0x3c, 0xc7, 0xa1, 0x4c, 0xbe, 0xae, 0x35, 0x7e, 0xbe,
  0x44, 0x85, 0x61, 0x3e, 0x65, 0x5c, 0x95, 0xbd, 0x57, 0xf2, 0xdc, 0xbe,
  0xd3, 0xe3, 0x53, 0xba, 0xad, 0xa8, 0x99, 0xbe, 0x12, 0xf3, 0xd2, 0x3d,
  0xf1, 0xeb, 0xfb, 0x3c, 0x1f, 0x9e, 0x6c, 0x3e, 0xc2, 0xff, 0x3d, 0x3e,
  0xeb, 0xbc, 0x5f, 0x3d, 0xe3, 0x89, 0x87, 0xbd, 0xb6, 0x24, 0x9e, 0xbd,
  0x05, 0x7c, 0x8e, 0xbe, 0x99, 0x38, 0x91, 0x3e, 0x58, 0x79, 0x83, 0x3e,
  0x44, 0xab, 0xc9, 0xbd, 0xf5, 0x9f, 0x42, 0xbe, 0x08, 0x1d, 0xd3, 0x3d,
  0x8f, 0x1f, 0x2b, 0xbe, 0xfa, 0x7a, 0x81, 0xbe, 0x46, 0xc7, 0x7f, 0xbe,
  0x2f, 0x14, 0x35, 0x3e, 0x45, 0x8f, 0x57, 0x3e, 0x46, 0x0b, 0xcb, 0x3d,
  0xd6, 0xd4, 0xa5, 0xbe, 0x60, 0x15, 0x00, 0x3f, 0x05, 0xcf, 0x63, 0x3d,
  0xe5, 0x8c, 0x1f, 0xbe, 0xb6, 0x17, 0x1c, 0xbe, 0x8f, 0x14, 0x86, 0xbd,
  0x67, 0xa6, 0xb5, 0x3d, 0x7a, 0x57, 0x2a, 0xbe, 0x94, 0x02, 0xf6, 0xbe,
  0x19, 0x3a, 0x9c, 0x3e, 0x23, 0x9b, 0xa3, 0xbc, 0x57, 0x62, 0xe4, 0xbe,
  0x3b, 0xb0, 0x38, 0xbe, 0xbe, 0xc1, 0x4d, 0xbd, 0x41, 0xba, 0xd3, 0x3d,
  0x5e, 0x46, 0x5c, 0x3d, 0x8e, 0x8c, 0x07, 0xbf, 0xa5, 0x2a, 0xc5, 0xbc,
  0xf6, 0x9b, 0xa5, 0xbd, 0x65, 0x7a, 0x84, 0xbe, 0xeb, 0x17, 0x08, 0xbe,
  0x61, 0x39, 0x61, 0xbd, 0xf7, 0x10, 0x66, 0xbe, 0x96, 0x2e, 0xcd, 0xbc,
  0xfe, 0x76, 0xc8, 0xbe, 0x94, 0x31, 0xcc, 0xbd, 0x21, 0x5d, 0xb5, 0xbd,
  0x13, 0xaf, 0x28, 0xbe, 0x86, 0x1f, 0x75, 0x3e, 0x21, 0xfa, 0x8d, 0xbb,
  0x70, 0x07, 0x21, 0x3e, 0x88, 0xe7, 0x0e, 0x3e, 0xd2, 0xb4, 0x3d, 0xbc,
  0xcd, 0xc0, 0x1e, 0x3e, 0xbe, 0x64, 0x7e, 0x3d, 0x2e, 0x23, 0xe6, 0xbd,
  0x4d, 0xdb, 0xc4, 0xbc, 0x6f, 0xb9, 0x4c, 0x3e, 0xf5, 0x48, 0x05, 0x3e,
  0x12, 0x00, 0xc0, 0x3e, 0x10, 0x44, 0xa7, 0x3d, 0x43, 0x8d, 0x8c, 0xbd,
  0x26, 0xb5, 0x36, 0xbd, 0xee, 0x89, 0x8b, 0xbd, 0x20, 0x04, 0x67, 0xbd,
  0xee, 0x78, 0x0b, 0xbe, 0x00, 0x58, 0xcf, 0x3d, 0x11, 0x8d, 0xea, 0x3e,
  0x32, 0xaf, 0x52, 0x3d, 0xf3, 0xe2, 0x93, 0x3d, 0x5e, 0x6d, 0xce, 0xbd,
  0x42, 0x13, 0xc6, 0xbc, 0xba, 0x8e, 0x94, 0xbd, 0x1e, 0xfa, 0x20, 0x3e,
  0xdf, 0xa4, 0x87, 0x3e, 0x3b, 0x6f, 0x6b, 0xbe, 0xa2, 0x42, 0x5e, 0xbd,
  0x2b, 0xa6, 0xaf, 0x3e, 0x24, 0x8b, 0x5b, 0xbe, 0x38, 0x58, 0xb1, 0xbd,
  0x49, 0x6d, 0xb8, 0xbd, 0x26, 0x5c, 0xd5, 0x3d, 0x61, 0x65, 0xc3, 0xbd,
  0x4c, 0x16, 0x83, 0xbe, 0x7d, 0xb2, 0x45, 0x3e, 0xea, 0x77, 0x59, 0xbd,
  0xe0, 0x13, 0x65, 0xbe, 0xc7, 0x6b, 0x37, 0xbd, 0xfc, 0x7c, 0xe8, 0xbd,
  0x87, 0xae, 0x09, 0x3e, 0x80, 0x33, 0x1b, 0x3e, 0xe7, 0x55, 0x5b, 0xbe,
  0xba, 0xe5, 0xfb, 0xbc, 0x34, 0x5a, 0x65, 0x3e, 0x78, 0x66, 0xb0, 0xbd,
  0x6c, 0xaf, 0xf3, 0xbd, 0x94, 0x74, 0x0b, 0xbe, 0x30, 0x03, 0xf4, 0x3c,
  0x98, 0xc2, 0xec, 0xbd, 0x4b, 0x5e, 0xae, 0xbe, 0x21, 0x38, 0x48, 0xbe,
  0x75, 0xb0, 0x86, 0x3e, 0x76, 0xdf, 0xbd, 0xbe, 0xc0, 0x78, 0x1c, 0xbd,
  0x79, 0xf4, 0xac, 0xbb, 0xe0, 0xad, 0x7d, 0xbe, 0xeb, 0x9f, 0xf2, 0x3d,
  0xdd, 0x57, 0x37, 0xbe, 0x12, 0xfd, 0xfd, 0xbc, 0x1d, 0x21, 0x36, 0xbe,
  0x4a, 0x7f, 0xf6, 0xbd, 0x6a, 0x0a, 0x14, 0xbe, 0x28, 0x78, 0x17, 0xbe,
  0x72, 0xb7, 0xbe, 0xbe, 0x18, 0x82, 0x77, 0x3d, 0x33, 0x26, 0x00, 0xbd,
  0xbf, 0x34, 0xa2, 0xbd, 0x58, 0xd4, 0x36, 0xbe, 0x7b, 0xa1, 0xa8, 0xbe,
  0x30, 0xc2, 0xaf, 0xbe, 0x63, 0x42, 0x1d, 0xbe, 0x6d, 0x79, 0x9f, 0xbd,
  0xa8, 0xb0, 0xe8, 0xbd, 0x3f, 0x0e, 0x54, 0x3e, 0x58, 0x6c, 0xdf, 0x3d,
  0xb7, 0x23, 0x79, 0x39, 0xbb, 0xcf, 0xa2, 0x3c, 0x3c, 0x1a, 0xd7, 0x3d,
  0xca, 0x7a, 0x74, 0xbb, 0x77, 0x74, 0xd1, 0xbd, 0x36, 0xa8, 0x6e, 0xbe,
  0xdd, 0x5f, 0x97, 0xbe, 0x76, 0x76, 0x8a, 0xbe, 0x1b, 0xdf, 0x07, 0x3e,
  0xb0, 0x57, 0x8c, 0xbe, 0xae, 0xf9, 0x1f, 0x3d, 0x15, 0x8f, 0xf7, 0xbb,
  0xa1, 0xfb, 0x44, 0x3c, 0x95, 0xe3, 0x27, 0x3e, 0x13, 0x1f, 0x1b, 0xbf,
  0x01, 0xa9, 0x1a, 0x3e, 0x8f, 0x7a, 0xe4, 0x3c, 0xb4, 0xda, 0x93, 0xbe,
  0x94, 0x60, 0x98, 0x3d, 0xef, 0x04, 0x20, 0xbe, 0x8e, 0xe1, 0x25, 0xbd,
  0x85, 0x60, 0xda, 0x3d, 0x2f, 0x25, 0x85, 0xbd, 0x72, 0x94, 0x61, 0x3e,
  0x19, 0x7b, 0xa3, 0xbd, 0xc7, 0x2d, 0x6f, 0xbe, 0xa6, 0x1f, 0x70, 0x3c,
  0x41, 0x47, 0x1b, 0xbe, 0x2e, 0x5a, 0x05, 0xbd, 0x53, 0xf6, 0xbd, 0xbc,
  0xc7, 0x23, 0x32, 0xbe, 0x16, 0x9a, 0x00, 0xbe, 0xc4, 0x76, 0xed, 0xbe,
  0xf3, 0xb3, 0xa0, 0xbe, 0x55, 0xe7, 0x05, 0xbe, 0x67, 0x48, 0x6d, 0xbe,
  0x1d, 0xbe, 0x38, 0x3d, 0x7e, 0x4f, 0x48, 0x3d, 0x8a, 0xb4, 0x73, 0xbe,
  0x67, 0x25, 0xd1, 0xbd, 0x28, 0xdf, 0xcb, 0xbe, 0x03, 0x55, 0x91, 0xbe,
  0x0e, 0x3c, 0x14, 0xbd, 0x74, 0xbb, 0xd9, 0xbd, 0x59, 0xc0, 0xaf, 0x3a,
  0xf7, 0xb2, 0x2d, 0x3d, 0xa6, 0xf8, 0xb0, 0x3e, 0x83, 0xa8, 0x87, 0xbe,
  0x39, 0xa7, 0x8b, 0x3e, 0x8a, 0xa1, 0xa8, 0xbe, 0x66, 0xdd, 0x9b, 0xbc,
  0x7a, 0x79, 0x9f, 0xbe, 0x90, 0xd5, 0x66, 0x3e, 0x76, 0x99, 0xe6, 0xbd,
  0xe9, 0xf1, 0x4a, 0x3e, 0xec, 0x36, 0x6e, 0xbe, 0x08, 0x2b, 0xc6, 0xbd,
  0xd2, 0x77, 0x9b, 0xbd, 0x16, 0xf8, 0xa4, 0xbd, 0xd8, 0xb0, 0x73, 0xbe,
  0x4e, 0x43, 0x49, 0x3e, 0xd1, 0x71, 0xaf, 0xbd, 0x54, 0x59, 0xbc, 0x3e,
  0x6e, 0x41, 0x19, 0xbe, 0xb3, 0xfd, 0x1f, 0x3e, 0xdc, 0xbe, 0x5b, 0xbe,
  0x57, 0x2c, 0x71, 0x3d, 0xa9, 0x59, 0x41, 0xbe, 0x02, 0x56, 0x2c, 0x3e,
  0x1f, 0xdd, 0x5a, 0x3e, 0x17, 0x7a, 0x85, 0x3e, 0x3e, 0xa3, 0x07, 0xbe,
  0xd6, 0xbc, 0x03, 0x3e, 0x11, 0x4e, 0x3f, 0xbe, 0x2b, 0x0a, 0x38, 0xbe,
  0x7a, 0x77, 0x6c, 0xbe, 0xe9, 0x93, 0x63, 0xbe, 0x18, 0x5c, 0x67, 0xbc,
  0x1f, 0x4d, 0xfd, 0xbd, 0x0e, 0x3b, 0xf1, 0xbc, 0x3f, 0xc2, 0x87, 0xbe,
  0xe3, 0x73, 0x19, 0xbe, 0x1f, 0xc7, 0x34, 0xbd, 0x5f, 0x20, 0x8b, 0xbd,
  0x56, 0x3f, 0x85, 0xbb, 0xa8, 0x6e, 0x62, 0x3e, 0xf6, 0x32, 0x1c, 0xbd,
  0xc7, 0x5b, 0x35, 0x3e, 0x8f, 0x15, 0x6e, 0x3e, 0x5e, 0x71, 0xd1, 0xbc,
  0x26, 0x28, 0xc3, 0x3d, 0x34, 0xa5, 0x22, 0xbd, 0xb8, 0xa2, 0x12, 0xbf,
  0x76, 0x7e, 0x54, 0xbe, 0x66, 0x04, 0x22, 0x3f, 0xb3, 0xd6, 0xa7, 0xbe,
  0x51, 0x6d, 0x28, 0xbe, 0x07, 0xb1, 0x38, 0x3d, 0xb8, 0xd2, 0x29, 0xbe,
  0x5e, 0x7c, 0xb9, 0xbc, 0x64, 0x3a, 0x86, 0xbf, 0xb9, 0x6c, 0xf3, 0xbe,
  0x60, 0x1f, 0x31, 0xbe, 0x65, 0x85, 0x18, 0xbf, 0xd8, 0x67, 0xc3, 0x3d,
  0xf0, 0xdd, 0x72, 0x3d, 0xd0, 0xc7, 0x26, 0xbf, 0x54, 0x48, 0xea, 0x3b,
  0xb5, 0x42, 0x11, 0xbf, 0xc9, 0xa9, 0x13, 0xbf, 0xf3, 0x73, 0x34, 0x3f,
  0xdd, 0xaf, 0x5f, 0xbf, 0x3e, 0x4d, 0xe0, 0xbd, 0xf5, 0xb7, 0x4c, 0xbd,
  0x96, 0x90, 0x2c, 0xbf, 0x06, 0x66, 0x82, 0xbd, 0xc2, 0xb0, 0x3f, 0xbf,
  0xf4, 0x49, 0x29, 0xbf, 0x6f, 0x03, 0xc9, 0x3e, 0x50, 0x8c, 0x74, 0xbf,
  0x2c, 0xb0, 0xcc, 0xbd, 0x63, 0x79, 0x36, 0x3e, 0x1b, 0x1f, 0x87, 0xbf,
  0xf7, 0xed, 0x01, 0xbd, 0x89, 0x02, 0xcf, 0xbe, 0x86, 0xcb, 0x03, 0xbf,
  0x0f, 0x22, 0x9b, 0x3e, 0x0b, 0x2b, 0x89, 0xbe, 0x95, 0x71, 0x0a, 0x3e,
  0x4c, 0x5d, 0xa8, 0xbd, 0xb9, 0xd5, 0x9c, 0xbe, 0x3e, 0xf7, 0x4d, 0xbd,
  0xad, 0x45, 0x0f, 0x3f, 0x7a, 0x34, 0x94, 0xbe, 0xff, 0x0a, 0xfa, 0x3e,
  0xee, 0xf3, 0xc7, 0x3e, 0x3b, 0x91, 0xa0, 0x3e, 0xc5, 0x66, 0x46, 0xbd,
  0x3f, 0xf8, 0x8e, 0xbd, 0x27, 0xca, 0xeb, 0xbc, 0xb0, 0x5a, 0x2f, 0x3e,
  0x03, 0xd2, 0xb5, 0x3c, 0x42, 0xeb, 0x03, 0x3e, 0xb7, 0x43, 0xed, 0x3c,
  0xf3, 0xb5, 0xd1, 0x3e, 0x04, 0x41, 0x92, 0xbe, 0xa0, 0x17, 0x81, 0xbe,
  0x06, 0xe7, 0x86, 0xbe, 0xd0, 0x53, 0x1f, 0xba, 0xcb, 0x02, 0x3d, 0xbb,
  0x23, 0x4a, 0xfa, 0xbc, 0x57, 0x95, 0xa3, 0xbd, 0x63, 0xcf, 0xf5, 0x3d,
  0xb5, 0x88, 0x21, 0xbe, 0x0c, 0x23, 0xfa, 0x3c, 0xd3, 0xe9, 0x9e, 0xbe,
  0x48, 0x4f, 0xaa, 0x3e, 0x31, 0x79, 0x11, 0x3d, 0x81, 0xcb, 0x80, 0x3e,
  0xc1, 0xae, 0x62, 0xbe, 0x5b, 0x29, 0x23, 0x3e, 0xd8, 0xf6, 0xb5, 0xbe,
  0xc0, 0xec, 0x2a, 0x3d, 0x7f, 0x18, 0x9d, 0xbe, 0xfe, 0xb8, 0xd8, 0xbd,
  0xde, 0x17, 0x7f, 0xbd, 0x80, 0x96, 0x93, 0x3e, 0x96, 0x1c, 0x65, 0xba,
  0x02, 0xe9, 0x84, 0x3d, 0xdc, 0xb0, 0x68, 0xbe, 0x15, 0x4b, 0xc2, 0x3d,
  0xd5, 0x99, 0x94, 0xbe, 0x9e, 0x62, 0xb8, 0xbc, 0x7b, 0x9c, 0xbc, 0x3a,
  0x7b, 0xa9, 0x5f, 0xbc, 0xb0, 0xf8, 0xcd, 0x3e, 0x6e, 0xb8, 0x14, 0x3c,
  0x61, 0x03, 0x0d, 0xbe, 0x83, 0x43, 0x50, 0x3e, 0x4f, 0x3b, 0x53, 0xbd,
  0x2d, 0x9f, 0xcd, 0xbe, 0xc0, 0xf6, 0x2c, 0xbe, 0x2f, 0x0b, 0x3e, 0x3f,
  0x2d, 0x69, 0x4b, 0xbe, 0x7a, 0x13, 0xaf, 0xbe, 0x69, 0x75, 0x6f, 0xbd,
  0x79, 0xc6, 0x00, 0xbe, 0xee, 0xce, 0x68, 0xbd, 0x80, 0xc3, 0x37, 0xbf,
  0x94, 0x91, 0xf0, 0xbd, 0xde, 0xb2, 0x8c, 0x3d, 0x97, 0xd1, 0xa1, 0xbe,
  0x4d, 0x12, 0x96, 0x3e, 0x24, 0xe7, 0xb1, 0x3d, 0xc1, 0x7f, 0x07, 0xbe,
  0x00, 0x46, 0xc3, 0xbc, 0xa8, 0xe0, 0x04, 0xbf, 0x48, 0xeb, 0xe4, 0xbb,
  0xfe, 0x16, 0x19, 0x3c, 0x8c, 0xd9, 0xad, 0xbd, 0x6e, 0x93, 0xfc, 0x3c,
  0x06, 0x90, 0x4e, 0xbd, 0x6b, 0x61, 0x1d, 0xbd, 0x6f, 0x08, 0x05, 0x3c,
  0x36, 0x3f, 0x74, 0x3e, 0x8b, 0x91, 0x6b, 0x3e, 0x97, 0x53, 0x82, 0x3e,
  0xd3, 0xff, 0x50, 0xbd, 0x50, 0x2c, 0x4a, 0x3e, 0x2f, 0x38, 0xb7, 0x3c,
  0x35, 0xad, 0xb7, 0xbc, 0xae, 0xda, 0x79, 0x3c, 0x61, 0xa4, 0x1a, 0xbe,
  0xf7, 0xbe, 0xf7, 0x3e, 0x6a, 0xb3, 0xcc, 0x3e, 0x03, 0x45, 0x89, 0xbe,
  0x6f, 0x46, 0x15, 0xbd, 0x76, 0x5b, 0xad, 0x3c, 0xbe, 0x8a, 0x44, 0xbd,
  0x31, 0xa8, 0xb7, 0x3b, 0xcb, 0xa9, 0x1f, 0xbe, 0x55, 0x0a, 0xc5, 0xbc,
  0xea, 0x5d, 0xb0, 0xbe, 0x24, 0xd3, 0x29, 0xbe, 0x57, 0x06, 0xbe, 0xbc,
  0x95, 0x39, 0xa7, 0xbe, 0xb2, 0x3c, 0x14, 0xbb, 0x9b, 0xe7, 0x34, 0xbe,
  0x8f, 0x18, 0x7d, 0xbe, 0xf2, 0x28, 0x8a, 0xbe, 0x6f, 0x62, 0xaf, 0xbd,
  0x19, 0x30, 0x4b, 0x3d, 0x91, 0xae, 0x15, 0xbd, 0x40, 0x99, 0x93, 0xbe,
  0xc7, 0x05, 0xe5, 0xbe, 0x50, 0x33, 0x67, 0xbe, 0x0c, 0x03, 0x15, 0xbf,
  0xd1, 0x6c, 0xcb, 0xbe, 0xd7, 0xa4, 0x42, 0x3e, 0x59, 0xc5, 0xe9, 0xbe,
  0xf4, 0x34, 0x26, 0x3d, 0xb2, 0xfe, 0x0e, 0x3e, 0x2c, 0x2a, 0x27, 0xbf,
  0x6e, 0xa5, 0x6f, 0xbd, 0xd5, 0x9b, 0xd8, 0xbd, 0x08, 0x17, 0xc2, 0xbe,
  0xa4, 0x8e, 0xb8, 0x3d, 0x6d, 0x85, 0x37, 0xbe, 0x20, 0xa8, 0xc2, 0x3d,
  0xe5, 0xe1, 0xab, 0xbd, 0x79, 0x1f, 0x3d, 0xbe, 0x9a, 0x89, 0xbb, 0xbd,
  0x3d, 0x52, 0x1a, 0x3f, 0xe4, 0x0a, 0x27, 0xbe, 0x84, 0xec, 0xb8, 0x3e,
  0x17, 0xc9, 0x6a, 0x3e, 0xca, 0x20, 0xc3, 0x3e, 0x09, 0x3c, 0x6b, 0xbe,
  0xfb, 0xd3, 0x8b, 0xbd, 0x2f, 0xa2, 0xc5, 0xbd, 0x03, 0xd3, 0x62, 0x3e,
  0x92, 0x4d, 0x03, 0xbd, 0x6a, 0x32, 0xea, 0xbd, 0x2f, 0x33, 0x3c, 0x3d,
  0x55, 0x0e, 0xd8, 0x3d, 0xea, 0x60, 0x74, 0xbe, 0x38, 0x08, 0x8b, 0x3d,
  0xc2, 0x58, 0xa1, 0xbd, 0xe7, 0xd1, 0xc1, 0x3e, 0xe3, 0x88, 0xb8, 0x3d,
  0x41, 0xd0, 0xcc, 0x3d, 0x76, 0x58, 0xac, 0xbe, 0xd2, 0xad, 0xa4, 0xbe,
  0xd7, 0x9a, 0x91, 0x3b, 0x27, 0x05, 0x89, 0xbd, 0xd8, 0xaf, 0x30, 0xbb,
  0x0b, 0xa2, 0x3d, 0x3e, 0xc5, 0xa2, 0x00, 0xbd, 0x82, 0x94, 0xd5, 0x3d,
  0xf0, 0x35, 0xf1, 0xbe, 0x81, 0xe5, 0xa3, 0xbe, 0x4f, 0x0d, 0xb9, 0xbb,
  0xb4, 0x35, 0x4f, 0xbe, 0x6a, 0x97, 0x42, 0x3c, 0x4f, 0x86, 0xbc, 0x3e,
  0x47, 0x1d, 0xa8, 0xbe, 0xdf, 0x99, 0xe8, 0x3e, 0xce, 0xf3, 0xc7, 0xbe,
  0x63, 0xae, 0xb5, 0xbe, 0xd7, 0xc3, 0xea, 0xbc, 0x54, 0x66, 0x5f, 0xbe,
  0x6d, 0x02, 0x83, 0xbb, 0x90, 0xac, 0xd3, 0x3e, 0x53, 0xbc, 0xed, 0x3d,
  0xb5, 0xf9, 0x05, 0x3f, 0x1a, 0x1d, 0x7b, 0x3e, 0x9e, 0x69, 0x70, 0xbe,
  0x9e, 0xfc, 0x6f, 0xbb, 0xd6, 0xb6, 0x3a, 0x3d, 0x71, 0x96, 0x20, 0xbc,
  0xc6, 0xde, 0xff, 0xff, 0x10, 0x00, 0x00, 0x00, 0x08, 0x00, 0x00, 0x00,
  0x1c, 0x00, 0x00, 0x00, 0x38, 0x00, 0x00, 0x00, 0x04, 0x00, 0x00, 0x00,
  0x10, 0x00, 0x00, 0x00, 0x04, 0x00, 0x00, 0x00, 0x01, 0x00, 0x00, 0x00,
  0x08, 0x00, 0x00, 0x00, 0x1a, 0x00, 0x00, 0x00, 0x73, 0x65, 0x71, 0x75,
  0x65, 0x6e, 0x74, 0x69, 0x61, 0x6c, 0x2f, 0x63, 0x6f, 0x6e, 0x76, 0x32,
  0x64, 0x5f, 0x31, 0x2f, 0x43, 0x6f, 0x6e, 0x76, 0x32, 0x44, 0x00, 0x00,
  0xc0, 0xde, 0xff, 0xff, 0xb6, 0xdf, 0xff, 0xff, 0x04, 0x00, 0x00, 0x00,
  0x80, 0x01, 0x00, 0x00, 0xf8, 0x64, 0x1f, 0x3c, 0xf5, 0xce, 0xdd, 0xbe,
  0x16, 0x2f, 0x7d, 0xbe, 0x70, 0x73, 0x5d, 0x3e, 0x82, 0x31, 0x11, 0xbe,
  0x60, 0x8e, 0xae, 0x3d, 0x66, 0x40, 0x35, 0xbd, 0x45, 0x80, 0x60, 0xbe,
  0xde, 0x9b, 0x92, 0xbe, 0x61, 0xbd, 0x7c, 0x3e, 0x89, 0x7e, 0xfd, 0x3d,
  0x39, 0xcb, 0x14, 0x3d, 0xab, 0x87, 0x38, 0x3e, 0x86, 0x88, 0x2c, 0xbe,
  0x12, 0x2b, 0x02, 0x3d, 0x51, 0x4c, 0x43, 0x3d, 0x1d, 0x6f, 0xf7, 0x3b,
  0x35, 0x18, 0x65, 0xbe, 0x94, 0x3a, 0x2c, 0x3e, 0xc9, 0xf0, 0x85, 0xbc,
  0x7e, 0xc7, 0x41, 0x3c, 0x9d, 0x2d, 0x1a, 0x3f, 0x84, 0xba, 0xa3, 0xbe,
  0x85, 0x19, 0x06, 0x3e, 0xd3, 0x62, 0x00, 0x3f, 0xcf, 0x59, 0xda, 0xbe,
  0x9f, 0x61, 0x12, 0x3e, 0x8d, 0xb4, 0x84, 0x3e, 0x04, 0x8f, 0xbc, 0x3b,
  0x32, 0xd5, 0x07, 0xbe, 0xef, 0xe5, 0x1e, 0xbf, 0x99, 0xa9, 0xa5, 0x3e,
  0x10, 0xa1, 0x66, 0xbd, 0xf8, 0xe8, 0x4b, 0xbe, 0x8d, 0x77, 0x01, 0x3d,
  0xab, 0xf4, 0x03, 0x3d, 0x07, 0x39, 0x9f, 0x3d, 0xa7, 0x01, 0x01, 0xbe,
  0xc3, 0x36, 0x8a, 0xbe, 0x37, 0x6b, 0xbf, 0xbd, 0xa7, 0x18, 0x7b, 0xbe,
  0xaa, 0x8b, 0x49, 0xbd, 0x51, 0xd5, 0x6a, 0xbe, 0x29, 0x91, 0x42, 0x3d,
  0x35, 0x23, 0x0e, 0xbf, 0x76, 0x84, 0x68, 0xbe, 0xbc, 0xd6, 0xa2, 0x3e,
  0x8c, 0x52, 0x12, 0xbe, 0x29, 0x95, 0xa5, 0x3c, 0xc3, 0x4e, 0x62, 0xbe,
  0x0a, 0xb3, 0x3d, 0x3e, 0x05, 0x49, 0xb1, 0x3e, 0xe2, 0x43, 0xa9, 0x3d,
  0x68, 0xc2, 0x81, 0xbe, 0xd3, 0x7e, 0xb4, 0x3e, 0x90, 0xd6, 0xfe, 0xbc,
  0x4f, 0x9f, 0x9c, 0xbe, 0x39, 0xc4, 0x09, 0x3d, 0xfc, 0x99, 0x2b, 0xbe,
  0x16, 0xb1, 0x54, 0xbe, 0x34, 0xad, 0x77, 0x3d, 0xd1, 0xd8, 0x0b, 0xbe,
  0x35, 0x72, 0xa6, 0xbc, 0x62, 0x5f, 0xa6, 0xbd, 0x9b, 0xac, 0x9e, 0x3c,
  0xe8, 0xe2, 0x03, 0x3d, 0x33, 0x22, 0x8b, 0x3d, 0x4d, 0x93, 0x9f, 0x3d,
  0x71, 0xa5, 0x3e, 0x3d, 0x1e, 0x66, 0x74, 0x3d, 0x7a, 0x13, 0x00, 0xbc,
  0x46, 0xc0, 0x32, 0x3d, 0xf1, 0xdf, 0x2d, 0xbe, 0x40, 0x66, 0xc2, 0x3d,
  0xc3, 0xd0, 0x9d, 0xbc, 0xde, 0xd3, 0x97, 0xbd, 0xa5, 0x20, 0x37, 0xbe,
  0x0b, 0x44, 0xb4, 0xbe, 0x7d, 0xf6, 0xb5, 0xbe, 0x8a, 0xc3, 0x37, 0x3e,
  0x71, 0xd8, 0xa1, 0xbe, 0xf5, 0xf2, 0x49, 0xbe, 0x55, 0xd9, 0x9b, 0x3c,
  0x82, 0xef, 0xe7, 0xbd, 0x87, 0x63, 0xb9, 0xbd, 0x58, 0x0d, 0x81, 0xbd,
  0xbc, 0x13, 0xf7, 0x3d, 0x60, 0x26, 0xfa, 0xbd, 0xc4, 0x03, 0x74, 0x37,
  0x9c, 0x21, 0xa6, 0x3d, 0x9a, 0x46, 0xd0, 0xbd, 0xfd, 0xd5, 0x1c, 0xbd,
  0x78, 0x98, 0x05, 0x3e, 0x25, 0xde, 0x8d, 0xbd, 0x76, 0xf2, 0xc8, 0xbc,
  0x03, 0x5a, 0x64, 0xbc, 0x9e, 0xe0, 0xff, 0xff, 0x10, 0x00, 0x00, 0x00,
  0x07, 0x00, 0x00, 0x00, 0x1c, 0x00, 0x00, 0x00, 0x38, 0x00, 0x00, 0x00,
  0x04, 0x00, 0x00, 0x00, 0x08, 0x00, 0x00, 0x00, 0x04, 0x00, 0x00, 0x00,
  0x03, 0x00, 0x00, 0x00, 0x01, 0x00, 0x00, 0x00, 0x18, 0x00, 0x00, 0x00,
  0x73, 0x65, 0x71, 0x75, 0x65, 0x6e, 0x74, 0x69, 0x61, 0x6c, 0x2f, 0x63,
  0x6f, 0x6e, 0x76, 0x32, 0x64, 0x2f, 0x43, 0x6f, 0x6e, 0x76, 0x32, 0x44,
  0x00, 0x00, 0x00, 0x00, 0x98, 0xe0, 0xff, 0xff, 0x8e, 0xe1, 0xff, 0xff,
  0x04, 0x00, 0x00, 0x00, 0x00, 0x01, 0x00, 0x00, 0xff, 0xf0, 0xb7, 0xbc,
  0xcc, 0x5c, 0x42, 0xbe, 0xc5, 0x37, 0xd3, 0x3c, 0x2e, 0x37, 0xa2, 0xbe,
  0x91, 0x1e, 0xde, 0xbd, 0xe6, 0x21, 0xed, 0x3d, 0xd6, 0x0f, 0x3a, 0xbe,
  0x6b, 0xca, 0xd6, 0xbe, 0xf3, 0xc1, 0x28, 0xbe, 0xcb, 0xdd, 0xa0, 0x3e,
  0x05, 0x1c, 0xbd, 0xbe, 0xf5, 0x1f, 0xc9, 0xbe, 0xbb, 0x94, 0x06, 0xbd,
  0x16, 0x93, 0x4d, 0xbe, 0x5e, 0x4e, 0xd5, 0xbe, 0xd1, 0x85, 0x01, 0x3d,
  0xdf, 0x53, 0x76, 0x3d, 0xb6, 0x47, 0xfb, 0x3b, 0xd3, 0xc1, 0xb0, 0xbd,
  0xff, 0x5b, 0xc9, 0xbd, 0x2d, 0xc5, 0xf9, 0xbb, 0x5b, 0xe9, 0x54, 0x3d,
  0xa9, 0xa9, 0xa1, 0xbd, 0x3a, 0x42, 0xc2, 0x3d, 0xb7, 0x88, 0x7d, 0xbe,
  0x3a, 0x9d, 0x1e, 0xc0, 0x6d, 0x1e, 0x26, 0x3d, 0x88, 0x09, 0x5e, 0x3e,
  0x25, 0x00, 0x9b, 0xbc, 0x91, 0x11, 0x3b, 0xbe, 0xd0, 0x18, 0x5f, 0x3d,
  0x2f, 0x0b, 0xa8, 0x3c, 0xfd, 0x1a, 0x31, 0x3d, 0x2d, 0x1d, 0x55, 0x3d,
  0x4a, 0x6f, 0xc7, 0xbd, 0xf6, 0x48, 0xda, 0xbe, 0x27, 0x49, 0x37, 0xbd,
  0xa8, 0x0e, 0xec, 0x3d, 0xfa, 0xc3, 0xcf, 0xbc, 0x64, 0x90, 0x80, 0x3d,
  0x3b, 0xac, 0xcc, 0xbd, 0x58, 0x15, 0x51, 0xbf, 0xe3, 0x48, 0x7b, 0x3d,
  0x7c, 0x16, 0x5a, 0xbe, 0x6f, 0xdd, 0xa2, 0xbd, 0xd5, 0x4b, 0xa5, 0xbd,
  0x7e, 0x8e, 0x4e, 0xbe, 0x7b, 0xb4, 0x3f, 0x3e, 0x2e, 0x70, 0xb8, 0xbc,
  0xd5, 0x63, 0x93, 0x3e, 0x0f, 0x56, 0x39, 0xbe, 0x97, 0x63, 0xe2, 0xbe,
  0xd9, 0x82, 0x4d, 0x3c, 0x13, 0x4a, 0xc2, 0xbc, 0xfd, 0x9f, 0x2d, 0xbd,
  0xdf, 0x11, 0xf3, 0x3d, 0x39, 0xb8, 0xc9, 0x3d, 0x13, 0xd6, 0x00, 0xbf,
  0xb4, 0x35, 0x29, 0x3e, 0x28, 0x41, 0x6e, 0x3c, 0x74, 0x85, 0x61, 0x3c,
  0x6d, 0xf1, 0x4e, 0xbe, 0x36, 0x21, 0x0c, 0x3e, 0x83, 0x18, 0x32, 0x3e,
  0xf6, 0xe1, 0xff, 0xff, 0x10, 0x00, 0x00, 0x00, 0x06, 0x00, 0x00, 0x00,
  0x14, 0x00, 0x00, 0x00, 0x30, 0x00, 0x00, 0x00, 0x02, 0x00, 0x00, 0x00,
  0x04, 0x00, 0x00, 0x00, 0x10, 0x00, 0x00, 0x00, 0x19, 0x00, 0x00, 0x00,
  0x73, 0x65, 0x71, 0x75, 0x65, 0x6e, 0x74, 0x69, 0x61, 0x6c, 0x2f, 0x64,
  0x65, 0x6e, 0x73, 0x65, 0x5f, 0x31, 0x2f, 0x4d, 0x61, 0x74, 0x4d, 0x75,
  0x6c, 0x00, 0x00, 0x00, 0xe8, 0xe1, 0xff, 0xff, 0xde, 0xe2, 0xff, 0xff,
  0x04, 0x00, 0x00, 0x00, 0x00, 0x1c, 0x00, 0x00, 0x7f, 0xc7, 0x91, 0x3d,
  0x89, 0x91, 0x51, 0x3c, 0xe2, 0xe1, 0xc3, 0x3d, 0x9b, 0xc8, 0x65, 0xbe,
  0xed, 0xc5, 0x16, 0x3b, 0xfd, 0x98, 0xfd, 0xbd, 0x79, 0x1d, 0x46, 0x3e,
  0x65, 0xe0, 0x7e, 0xbd, 0x67, 0xa9, 0x54, 0x3e, 0x0d, 0x4e, 0x4d, 0x3e,
  0x13, 0x5b, 0xf3, 0xbd, 0xb6, 0x5a, 0x12, 0xbe, 0x00, 0x11, 0xae, 0xbd,
  0xc3, 0x3f, 0xc4, 0xbd, 0x54, 0x1b, 0x93, 0x3d, 0x2b, 0x0d, 0xf9, 0x3d,
  0x13, 0x54, 0x2b, 0xbe, 0xf8, 0x03, 0xb4, 0x3d, 0xf7, 0x83, 0xa0, 0x39,
  0xbd, 0x67, 0x2a, 0xbd, 0xd9, 0x22, 0x45, 0xbd, 0x92, 0x71, 0xa6, 0xbd,
  0x6b, 0x6b, 0x0e, 0x3d, 0x56, 0x9c, 0x2a, 0x3d, 0xa4, 0x33, 0x83, 0xbe,
  0x15, 0x24, 0x45, 0x3d, 0x36, 0x9c, 0x69, 0x3e, 0x99, 0xdc, 0x11, 0xbe,
  0x41, 0x95, 0x95, 0x3d, 0x79, 0x50, 0x2c, 0xbd, 0x9a, 0x63, 0x85, 0x3d,
  0x9b, 0xc0, 0x21, 0x3b, 0xca, 0xae, 0xa3, 0x3d, 0x78, 0xbd, 0xdf, 0x3e,
  0x3b, 0xdf, 0x1e, 0xbc, 0xbf, 0x14, 0xd0, 0x3b, 0x4d, 0x23, 0xd4, 0xbd,
  0x21, 0x8d, 0x71, 0xbd, 0xb2, 0x67, 0x8f, 0x3d, 0x1e, 0xce, 0x97, 0x3d,
  0x69, 0x8c, 0xce, 0xbe, 0x08, 0x15, 0x18, 0x3e, 0x51, 0x4b, 0x45, 0x3c,
  0xaa, 0x0b, 0x65, 0xbe, 0x9e, 0xcf, 0x8f, 0x3e, 0x4c, 0x77, 0x21, 0xbe,
  0x07, 0xe5, 0x97, 0x3e, 0x52, 0x90, 0x53, 0xbd, 0xd2, 0x6a, 0x94, 0x3d,
  0xbb, 0x26, 0xa2, 0x3e, 0x83, 0x65, 0xce, 0xbc, 0x3c, 0x36, 0x7f, 0x3d,
  0x78, 0x00, 0xe5, 0xbc, 0xf9, 0xac, 0x4b, 0xbd, 0x1a, 0x8b, 0xa1, 0x3d,
  0x13, 0x21, 0x44, 0x3c, 0x93, 0x98, 0x3d, 0x3c, 0x25, 0x76, 0x1d, 0x3d,
  0x10, 0x28, 0x92, 0x3c, 0xda, 0xd5, 0x55, 0xbe, 0x7c, 0x32, 0x51, 0x3e,
  0x17, 0xf8, 0x0d, 0xbe, 0x4e, 0xa9, 0x56, 0x3c, 0xf5, 0x4d, 0x91, 0x3d,
  0x59, 0x05, 0x75, 0x3d, 0x1d, 0xbc, 0x3b, 0x3d, 0x41, 0x84, 0x03, 0x3d,
  0x57, 0x92, 0xa1, 0xbd, 0x23, 0x14, 0xa0, 0x3c, 0x82, 0x0d, 0xf0, 0xbd,
  0x79, 0x06, 0x21, 0x3e, 0xdd, 0x84, 0x76, 0x3e, 0xc6, 0x4e, 0xe9, 0x3d,
  0x31, 0x55, 0x31, 0x3d, 0x30, 0x7f, 0x0c, 0xbe, 0x82, 0x45, 0x4d, 0xbe,
  0x2f, 0xe1, 0x68, 0x3d, 0x9c, 0xbf, 0x8f, 0xbd, 0xe1, 0xb1, 0x59, 0x3b,
  0x45, 0x10, 0xdc, 0x3d, 0xd6, 0x7e, 0xe1, 0xbd, 0xdf, 0xed, 0x96, 0x3e,
  0xcc, 0xe8, 0x38, 0x3d, 0x7c, 0x20, 0xdd, 0xbb, 0xe3, 0x40, 0x15, 0x3d,
  0x73, 0x33, 0xf1, 0xbd, 0x89, 0xa4, 0xdc, 0xbd, 0x37, 0xb9, 0xb5, 0xbc,
  0x23, 0x5c, 0x48, 0xbd, 0x94, 0x08, 0x91, 0x3c, 0x0f, 0xb9, 0x9e, 0xbd,
  0x90, 0xae, 0x56, 0xbe, 0x4a, 0x33, 0x91, 0x3d, 0x33, 0xa1, 0xf3, 0xbd,
  0x8a, 0x8b, 0xdf, 0xb8, 0x89, 0x32, 0x81, 0x3d, 0x2f, 0x78, 0xac, 0xbd,
  0x7b, 0x19, 0x0e, 0x3e, 0x4d, 0x70, 0x96, 0xbd, 0xce, 0xb1, 0xac, 0xbc,
  0x10, 0x19, 0xa6, 0x3b, 0x4a, 0x29, 0x77, 0xbe, 0x5a, 0x44, 0x6e, 0x3e,
  0x12, 0x9d, 0x46, 0xbe, 0x39, 0x24, 0x1b, 0xbd, 0xe8, 0x69, 0xc2, 0x3c,
  0x10, 0xcd, 0x53, 0x3d, 0x75, 0x55, 0x97, 0xbe, 0xe6, 0xe0, 0x66, 0x3e,
  0x6e, 0x4a, 0x1d, 0xbd, 0x7f, 0x2f, 0x06, 0x3e, 0x31, 0xc2, 0xd7, 0xbd,
  0x79, 0x55, 0x12, 0xbe, 0x59, 0x35, 0x89, 0x3c, 0x54, 0x46, 0xf0, 0x3d,
  0xc0, 0xcf, 0xbb, 0xbd, 0x33, 0x14, 0x52, 0xbe, 0xda, 0xfd, 0x51, 0xbe,
  0x2b, 0xfe, 0xff, 0x3b, 0x38, 0x4d, 0x14, 0xbe, 0x8f, 0x41, 0x26, 0xbd,
  0x61, 0xdc, 0x46, 0xbe, 0xd9, 0xd1, 0x4e, 0xbd, 0x60, 0xc8, 0x19, 0xbd,
  0xe7, 0xa1, 0xc6, 0x3d, 0x08, 0x09, 0x2c, 0xbe, 0x99, 0x82, 0x84, 0xbd,
  0x92, 0x6c, 0xd2, 0xbd, 0xaf, 0xfa, 0x0f, 0xbe, 0xab, 0x23, 0x38, 0x3e,
  0xf9, 0xe3, 0xd0, 0x3c, 0x41, 0x61, 0xd2, 0x3d, 0xc9, 0x41, 0xe3, 0x3c,
  0x34, 0x7b, 0xb7, 0xbd, 0xd8, 0x93, 0xf6, 0xbc, 0x4c, 0xdd, 0xba, 0x3d,
  0x0c, 0xcb, 0xb9, 0xbd, 0x17, 0x1e, 0x6a, 0xbe, 0x59, 0x61, 0x53, 0xbd,
  0x14, 0x65, 0x44, 0xbe, 0xe9, 0x13, 0xc0, 0xbd, 0x1a, 0x3b, 0xa9, 0xbd,
  0x9a, 0xa6, 0xac, 0xbd, 0x3f, 0xc0, 0x26, 0xbe, 0xa1, 0xa9, 0xc8, 0x3d,
  0x18, 0x48, 0x26, 0xbd, 0x76, 0xd2, 0x2d, 0xbb, 0x46, 0x27, 0x3b, 0xbe,
  0x6f, 0xc0, 0x40, 0xbe, 0x78, 0x56, 0x86, 0x3d, 0x46, 0x50, 0x4c, 0xbe,
  0xb2, 0x6d, 0x78, 0xbd, 0xb6, 0x71, 0x5f, 0x3d, 0xa9, 0xb4, 0xcd, 0x3d,
  0xaa, 0x9b, 0x47, 0xbe, 0x45, 0xd5, 0x03, 0x3d, 0x29, 0xca, 0x36, 0xbc,
  0xe7, 0x75, 0xac, 0xbd, 0x76, 0xda, 0xdd, 0xbd, 0x2d, 0xa7, 0x59, 0xbe,
  0x12, 0x11, 0x2d, 0x3e, 0x55, 0xe0, 0x4c, 0xbe, 0x20, 0x0e, 0x1a, 0xbe,
  0x00, 0x3a, 0xd5, 0x3b, 0x15, 0xbb, 0xf9, 0xbd, 0x59, 0xa9, 0x32, 0xbd,
  0x4f, 0x6a, 0x72, 0xbd, 0x36, 0x17, 0x3c, 0x3c, 0x16, 0x2b, 0x0a, 0x3e,
  0x39, 0xcd, 0x25, 0xbe, 0x66, 0xb9, 0xaf, 0x3d, 0xf2, 0x97, 0xb6, 0x3d,
  0x62, 0xb4, 0x13, 0xbd, 0xab, 0x1c, 0x3d, 0xbe, 0x26, 0x70, 0x90, 0xbe,
  0xf8, 0x80, 0xa1, 0xbc, 0xaa, 0xbc, 0xd7, 0x3c, 0x3b, 0x62, 0x1b, 0xbd,
  0xe3, 0x1a, 0x8e, 0x3d, 0x0e, 0x21, 0x13, 0x3e, 0x0b, 0x27, 0x74, 0xbe,
  0x73, 0xe1, 0x0e, 0x3c, 0xd7, 0x6a, 0x71, 0xbd, 0x71, 0xd7, 0x77, 0x3d,
  0x60, 0x9c, 0x50, 0xbe, 0xfb, 0x1e, 0xc9, 0xbd, 0x9a, 0x75, 0x36, 0xbe,
  0x88, 0xa2, 0xf2, 0xbd, 0x15, 0xa6, 0xf0, 0xbd, 0x20, 0xbc, 0x05, 0xbe,
  0xe3, 0xa3, 0x06, 0x3e, 0x52, 0xc1, 0x59, 0xbe, 0xb2, 0x91, 0x02, 0x3e,
  0xaa, 0xb6, 0x40, 0xbd, 0x87, 0xe7, 0x71, 0xbe, 0x5c, 0xdd, 0x44, 0xbd,
  0x6a, 0xb2, 0xdb, 0xbd, 0x90, 0x34, 0x5e, 0xbd, 0x03, 0x12, 0x4c, 0x3d,
  0x76, 0x65, 0x14, 0xbe, 0xf5, 0x2a, 0x39, 0x3e, 0x7d, 0x7b, 0xe1, 0xbd,
  0x32, 0x3d, 0x03, 0xbe, 0x86, 0xdb, 0xd2, 0x3d, 0x69, 0xb7, 0x54, 0xbd,
  0x2b, 0x01, 0x17, 0x3d, 0x0d, 0x78, 0x30, 0xbd, 0x3b, 0x99, 0x65, 0xbd,
  0xba, 0xdd, 0x0f, 0xbe, 0x60, 0x8e, 0x24, 0xbe, 0x28, 0x15, 0x52, 0xbe,
  0x60, 0xbb, 0x7b, 0x3c, 0x60, 0xa3, 0x8e, 0xbd, 0xd4, 0x7e, 0xeb, 0xbd,
  0x84, 0x43, 0x0d, 0xbe, 0xc8, 0xd9, 0xff, 0xbd, 0x20, 0xd3, 0xb3, 0xbd,
  0x97, 0x62, 0x52, 0xbe, 0xd2, 0xff, 0x41, 0xbe, 0xd1, 0x32, 0x5f, 0xbe,
  0x43, 0xfa, 0x7d, 0xbe, 0x2b, 0x10, 0x06, 0xbe, 0x41, 0x4b, 0xfa, 0xbc,
  0x5a, 0x95, 0xc3, 0xbe, 0x23, 0x2b, 0x89, 0xbd, 0x78, 0x0b, 0x1b, 0xbe,
  0x74, 0xde, 0x7a, 0xbe, 0xc4, 0xe1, 0x45, 0x3d, 0x00, 0x5f, 0xd0, 0x3a,
  0xfd, 0xd1, 0x6a, 0xbe, 0x34, 0xec, 0xfd, 0xbd, 0xe5, 0x1a, 0xab, 0xbd,
  0x90, 0xa6, 0x14, 0x3d, 0xba, 0xf4, 0x9f, 0xbd, 0x12, 0xb6, 0x5c, 0xbb,
  0xcc, 0x9e, 0xd5, 0xbd, 0x5e, 0x26, 0x9f, 0x3c, 0x8c, 0x2a, 0x99, 0x3c,
  0x2e, 0xe6, 0x48, 0xbe, 0x8a, 0xd2, 0xbe, 0xbb, 0x5a, 0x9c, 0xa6, 0xbd,
  0x48, 0x01, 0x20, 0x3c, 0xcf, 0xe2, 0x36, 0xbe, 0x64, 0xa7, 0xda, 0xbc,
  0x05, 0x6a, 0x0b, 0xbe, 0xff, 0x63, 0x5e, 0x3d, 0x00, 0xb1, 0x9c, 0x3b,
  0x77, 0x55, 0x20, 0xbe, 0x8c, 0x3c, 0x3c, 0xbd, 0x2a, 0x53, 0x48, 0x3d,
  0x5f, 0x26, 0x31, 0x3c, 0x39, 0x48, 0x35, 0x3d, 0x33, 0x1b, 0xf7, 0xbc,
  0x86, 0x9d, 0x40, 0xbe, 0x8b, 0x6d, 0xb7, 0xbd, 0x90, 0x0a, 0x22, 0xbe,
  0x70, 0x74, 0x89, 0xbc, 0x05, 0x2e, 0xb1, 0x3c, 0xdb, 0xbe, 0x3a, 0xbe,
  0x41, 0xd0, 0x4f, 0x3d, 0xf1, 0x5d, 0x03, 0x3d, 0x1d, 0xfb, 0x1a, 0xbe,
  0x67, 0x43, 0x25, 0x3e, 0x39, 0x2d, 0x2f, 0x3e, 0x6a, 0xd9, 0x4d, 0xbe,
  0x81, 0xd2, 0x03, 0x3e, 0x17, 0x28, 0xc7, 0xbd, 0xf9, 0xa4, 0x9b, 0x3d,
  0xf0, 0x62, 0xa7, 0xbd, 0x7a, 0x99, 0xbf, 0x3d, 0x9a, 0xac, 0x35, 0x3c,
  0x5a, 0x50, 0xb8, 0x3e, 0x61, 0xa6, 0x16, 0xbc, 0x31, 0x2c, 0x84, 0xbc,
  0x1c, 0x9d, 0x9b, 0xbc, 0xfb, 0xde, 0x0b, 0xbe, 0x6f, 0x79, 0x16, 0xbe,
  0xa7, 0x9a, 0x7b, 0xbe, 0x02, 0xc0, 0xc0, 0xbd, 0x17, 0xa1, 0x3d, 0x3e,
  0xab, 0x07, 0x32, 0xbe, 0x91, 0x4a, 0x24, 0xbe, 0x60, 0x34, 0xaf, 0xbd,
  0x52, 0x80, 0xfb, 0xbc, 0xdb, 0x34, 0x1e, 0x3e, 0xf7, 0xea, 0x37, 0x3b,
  0x43, 0x51, 0x4c, 0xbc, 0xf5, 0x09, 0x9d, 0xbd, 0xc6, 0xec, 0x09, 0xbe,
  0x3e, 0x82, 0x18, 0x3e, 0x90, 0x81, 0x2c, 0xbd, 0x22, 0xd0, 0xe8, 0x3c,
  0xf8, 0xc0, 0x4f, 0xbe, 0x26, 0x1a, 0xbd, 0xbd, 0xca, 0x86, 0xee, 0x38,
  0x94, 0x23, 0x54, 0xbd, 0xd1, 0x10, 0xfe, 0x3a, 0x37, 0x5d, 0x7c, 0xbe,
  0xd7, 0xa3, 0x20, 0x3e, 0x3f, 0x55, 0xaa, 0xbd, 0x7f, 0x3b, 0xb1, 0x3c,
  0x06, 0xd8, 0x32, 0xbe, 0xa7, 0xe1, 0xc0, 0xbb, 0x98, 0x03, 0x81, 0xbc,
  0x1e, 0xb2, 0x24, 0xbd, 0x4c, 0xb1, 0x39, 0xbd, 0x30, 0xf0, 0xfd, 0x3d,
  0xdc, 0x1b, 0x20, 0xbd, 0xbf, 0x33, 0xfd, 0xbd, 0x7b, 0x17, 0xdf, 0xbd,
  0xb0, 0x15, 0x01, 0xbd, 0x8d, 0xac, 0x24, 0x3e, 0x4b, 0x85, 0xcf, 0x3c,
  0xe1, 0xc2, 0x96, 0x3d, 0x87, 0xab, 0xf0, 0xbd, 0xd4, 0xa6, 0x98, 0xbd,
  0x5b, 0x7a, 0xd9, 0xbc, 0x2d, 0xdd, 0xc6, 0x3d, 0x02, 0x10, 0x97, 0x3d,
  0x55, 0xcd, 0x03, 0xbe, 0x39, 0xf8, 0x02, 0xbc, 0xcc, 0x74, 0x19, 0xbd,
  0x81, 0x16, 0xe9, 0x3c, 0xcc, 0xab, 0xad, 0x3d, 0x2e, 0x5c, 0xe3, 0xbd,
  0x7f, 0x68, 0x89, 0xbe, 0x82, 0x98, 0x06, 0xbd, 0x2b, 0xa6, 0x8d, 0xbd,
  0x21, 0x7c, 0x9c, 0xbd, 0xd0, 0x0d, 0x0b, 0xbd, 0x1b, 0xbb, 0x94, 0xbd,
  0xb9, 0xaf, 0xda, 0xbd, 0xa3, 0x4d, 0x1f, 0xbe, 0xef, 0xe5, 0x0e, 0xbb,
  0x1f, 0xe1, 0x52, 0xbd, 0xcf, 0x41, 0xd2, 0xbd, 0x0e, 0x77, 0x4a, 0xbe,
  0xe6, 0x63, 0x79, 0xbd, 0xda, 0xde, 0x88, 0xbe, 0x79, 0x42, 0x80, 0xbd,
  0x9c, 0x17, 0x43, 0x3c, 0x7f, 0x0d, 0x65, 0x3c, 0x72, 0x49, 0x5b, 0xbb,
  0x05, 0xca, 0x57, 0x3e, 0x9e, 0x44, 0x56, 0xbd, 0x4b, 0xe2, 0xac, 0xbd,
  0x2b, 0x6f, 0xc4, 0xbd, 0x2b, 0x22, 0xb8, 0x3b, 0xb2, 0x3b, 0xed, 0xbd,
  0x04, 0xf6, 0x99, 0x3d, 0x15, 0x63, 0x28, 0x3e, 0xc6, 0xfb, 0x09, 0x3e,
  0x99, 0x83, 0xa4, 0xbd, 0x57, 0x9e, 0xd7, 0x3d, 0xf8, 0xf5, 0x42, 0xbe,
  0x7b, 0xb4, 0xf5, 0xbd, 0x5f, 0x4f, 0x1d, 0xbc, 0xf7, 0xa8, 0xb0, 0xbe,
  0xeb, 0x87, 0x53, 0x3e, 0xb8, 0x87, 0x00, 0x3d, 0xdd, 0x77, 0xcf, 0xbc,
  0x2a, 0x96, 0xe1, 0x3d, 0xc1, 0x8c, 0x4e, 0xbe, 0x74, 0x3d, 0x8f, 0x3d,
  0x4d, 0xf8, 0xef, 0xbd, 0x12, 0x29, 0xc9, 0x3d, 0xc0, 0xdf, 0x2d, 0x3d,
  0xd3, 0xb3, 0x64, 0xbd, 0x0c, 0x40, 0xf5, 0xbd, 0x24, 0x19, 0xc3, 0x3d,
  0x49, 0x66, 0x4e, 0xbe, 0xe5, 0xc8, 0x90, 0xbb, 0x45, 0xb6, 0xff, 0xbd,
  0x6b, 0x5a, 0x31, 0xbe, 0x94, 0x53, 0x5c, 0x3d, 0xb9, 0xba, 0xb2, 0xbb,
  0x5f, 0xe4, 0xe1, 0x3c, 0x65, 0xb5, 0x86, 0x3e, 0xda, 0x89, 0xbd, 0x3d,
  0xb4, 0x00, 0x3e, 0xbd, 0xd9, 0xd3, 0xa4, 0x3e, 0xb7, 0xc8, 0x2c, 0xbd,
  0xea, 0x45, 0x0a, 0xbe, 0x79, 0x63, 0x19, 0xbe, 0xc5, 0xda, 0x3f, 0xbe,
  0x11, 0x0c, 0x46, 0x3e, 0x78, 0xce, 0x2f, 0x3d, 0x07, 0x2d, 0x6a, 0xbc,
  0x9c, 0xd8, 0x62, 0xbe, 0xcd, 0xb1, 0x71, 0xbd, 0x41, 0x32, 0x3a, 0x3e,
  0xec, 0x07, 0x1a, 0x3e, 0x6e, 0xec, 0x5e, 0xbd, 0xb6, 0xfa, 0x91, 0x3e,
  0xec, 0x53, 0x3b, 0x3e, 0x7c, 0x7b, 0x09, 0xbd, 0x0e, 0xd5, 0xb1, 0x3d,
  0xfd, 0x8d, 0xa9, 0xbd, 0x9e, 0x54, 0xaf, 0x3c, 0x03, 0x07, 0x96, 0xbc,
  0xbe, 0x6e, 0x5a, 0x3b, 0x3f, 0x9a, 0x93, 0x3d, 0x02, 0xe6, 0x4e, 0x3d,
  0x05, 0xb1, 0xc9, 0xbc, 0x3d, 0x9e, 0x92, 0xbd, 0x27, 0x6b, 0x05, 0xbe,
  0xc8, 0x00, 0x03, 0xbd, 0x3c, 0xb4, 0xb7, 0x3d, 0x81, 0xd2, 0x59, 0xbe,
  0x42, 0x2d, 0xec, 0x3d, 0x1e, 0xfa, 0x79, 0x3a, 0xf2, 0xf1, 0x82, 0x3c,
  0x07, 0x2a, 0xef, 0xbd, 0xe9, 0x28, 0x82, 0x3d, 0xff, 0xdf, 0xd6, 0xbd,
  0xcb, 0xf2, 0xb0, 0x3c, 0x4d, 0xb9, 0x16, 0xbe, 0x7e, 0x05, 0x86, 0x3c,
  0x52, 0x5a, 0x19, 0xbe, 0x68, 0x93, 0x08, 0x3c, 0x83, 0x7c, 0x1b, 0xbe,
  0x25, 0x5c, 0x65, 0x3d, 0x54, 0xf1, 0x26, 0x3d, 0x7a, 0x17, 0x16, 0x3e,
  0x19, 0x7f, 0xa7, 0x3d, 0xdb, 0xed, 0xb8, 0xbd, 0xe0, 0xbf, 0x8b, 0x3d,
  0x15, 0x6c, 0x6d, 0xbe, 0xaf, 0x6c, 0x1f, 0xbe, 0xc8, 0xa7, 0x32, 0x3d,
  0x8b, 0xbe, 0x8b, 0xbd, 0x0e, 0xf1, 0x14, 0xbe, 0x5d, 0x08, 0x8e, 0x3d,
  0x9a, 0xed, 0x09, 0xbe, 0x83, 0x33, 0x43, 0x3d, 0xaf, 0x00, 0x42, 0x3d,
  0xe2, 0x7c, 0x6d, 0xbc, 0x03, 0x2e, 0x50, 0xbe, 0x91, 0x3a, 0x63, 0xbc,
  0x52, 0x62, 0xd6, 0x3d, 0x49, 0xbe, 0xa6, 0x3d, 0x8d, 0x4a, 0xd1, 0xbd,
  0x8c, 0xf5, 0xf5, 0xbc, 0xb7, 0x04, 0x92, 0x3c, 0xd1, 0x53, 0xdd, 0xba,
  0x91, 0x93, 0xe2, 0xbd, 0x76, 0x98, 0x03, 0xbd, 0xf4, 0x28, 0x1f, 0xbd,
  0x08, 0x5c, 0x33, 0x3e, 0x3f, 0x7c, 0x22, 0x3e, 0xbe, 0xfd, 0x7b, 0x3e,
  0x3b, 0xef, 0x4f, 0x3e, 0x45, 0x75, 0x56, 0xbe, 0x54, 0xf6, 0xd2, 0x3c,
  0x0b, 0x33, 0x52, 0x3c, 0x6a, 0x54, 0xa5, 0x3e, 0x55, 0xcb, 0xa5, 0x3e,
  0xe7, 0x96, 0x68, 0xbe, 0x07, 0x1c, 0xb8, 0xbd, 0x07, 0x56, 0xc5, 0x3d,
  0x08, 0xd0, 0x60, 0xbe, 0x91, 0x9a, 0x61, 0x3c, 0x9b, 0x31, 0x61, 0x3e,
  0x86, 0x9a, 0x42, 0xbe, 0x4b, 0x1b, 0x1b, 0xbe, 0x16, 0x73, 0x7c, 0x3e,
  0x1b, 0xe9, 0x98, 0x3e, 0xbb, 0xd3, 0x6c, 0x3d, 0x84, 0xe5, 0xf8, 0xbd,
  0x49, 0xfb, 0xe5, 0xbd, 0xa7, 0x62, 0x32, 0xbd, 0x77, 0xbe, 0x81, 0xbd,
  0x63, 0x84, 0xe5, 0x3e, 0xba, 0xb1, 0xb3, 0x3d, 0x26, 0x4f, 0x3c, 0xbe,
  0x45, 0x44, 0x91, 0x3e, 0xe3, 0x16, 0xdf, 0x3d, 0x83, 0xed, 0x95, 0xbd,
  0xe3, 0x0e, 0x8c, 0x3d, 0xdf, 0xca, 0xf2, 0xbd, 0xaa, 0x3b, 0x88, 0xbd,
  0x0a, 0xb5, 0xa1, 0x3e, 0x82, 0x0c, 0x07, 0x3e, 0x95, 0xb0, 0xb2, 0x3e,
  0x7e, 0xf0, 0x26, 0xbe, 0xcb, 0x35, 0x50, 0x3c, 0x26, 0x91, 0x22, 0x3e,
  0x52, 0x87, 0x42, 0x3e, 0x49, 0x74, 0x94, 0x3e, 0x92, 0xc4, 0x93, 0x3c,
  0x33, 0x5a, 0x81, 0xbe, 0x4b, 0xbf, 0x8c, 0x3e, 0x52, 0x97, 0x15, 0x3d,
  0x1c, 0x56, 0xdc, 0x3d, 0x49, 0xda, 0x97, 0x3d, 0x7d, 0x8e, 0x9b, 0x3d,
  0x90, 0x3b, 0xeb, 0xbc, 0x5b, 0xdb, 0x61, 0xbd, 0xf7, 0x65, 0x5e, 0xbd,
  0xdb, 0x60, 0x5c, 0x3e, 0x2d, 0x8c, 0xeb, 0xbd, 0x0f, 0x22, 0x74, 0x3d,
  0x05, 0xc2, 0x4a, 0xbe, 0x86, 0x66, 0x2e, 0x3e, 0x2a, 0x9a, 0xc0, 0x3d,
  0xeb, 0x5d, 0x19, 0x3e, 0xd2, 0x74, 0x2c, 0xbe, 0xea, 0xf0, 0x52, 0x3e,
  0xd8, 0xcd, 0xb7, 0x3d, 0x0d, 0xe8, 0x88, 0x3e, 0x8f, 0xfc, 0x97, 0x3e,
  0x0d, 0x40, 0x38, 0xbd, 0x20, 0x47, 0x11, 0xbe, 0x05, 0xba, 0x1d, 0x3e,
  0x2a, 0x78, 0x6b, 0x3e, 0x00, 0x9e, 0x2a, 0x3e, 0x59, 0xe1, 0x32, 0x3d,
  0x85, 0xc3, 0xf0, 0x3d, 0x83, 0x61, 0xb5, 0x3d, 0x0d, 0x87, 0x62, 0x3e,
  0xd4, 0xee, 0x0d, 0x3d, 0xc8, 0x67, 0xee, 0x3d, 0x7d, 0x4e, 0xde, 0x3b,
  0xa7, 0x56, 0xdb, 0x3d, 0x33, 0x1c, 0xa5, 0x3e, 0xb3, 0x63, 0xb7, 0x3d,
  0xfa, 0xc2, 0xf1, 0x3d, 0x2e, 0xa8, 0x0e, 0x3e, 0x03, 0x2b, 0xb1, 0x3d,
  0xa6, 0x9e, 0xe0, 0x3d, 0xbb, 0xfb, 0x0a, 0x3d, 0x05, 0x40, 0xc2, 0x3e,
  0x6a, 0x36, 0x8d, 0xbd, 0x30, 0xec, 0x51, 0xbd, 0xfc, 0x11, 0x65, 0x3d,
  0xf3, 0xc2, 0x12, 0x3e, 0xc6, 0x6d, 0xd9, 0x3e, 0x72, 0x3c, 0x2e, 0x3e,
  0xc0, 0x67, 0x65, 0xbd, 0x48, 0x8b, 0xbd, 0x3e, 0x13, 0x29, 0x3d, 0x3c,
  0x39, 0x04, 0x88, 0xbd, 0x26, 0xa8, 0x63, 0xbe, 0xbb, 0x5c, 0x65, 0xbe,
  0xf7, 0x9a, 0x01, 0xbe, 0xdb, 0xea, 0x95, 0xbe, 0xd9, 0x2f, 0x6b, 0xbd,
  0x5d, 0x96, 0x5f, 0x3e, 0x2a, 0x3b, 0xed, 0xbc, 0xcc, 0xe3, 0x17, 0x3e,
  0x3b, 0x7c, 0x17, 0xbc, 0x9b, 0xd2, 0x93, 0x3e, 0x18, 0x52, 0x8e, 0x3e,
  0x6a, 0xbb, 0x6d, 0xbe, 0x33, 0xc8, 0x78, 0xbe, 0x71, 0x01, 0x91, 0x3e,
  0xbe, 0x51, 0x17, 0xbe, 0xc8, 0xa9, 0x47, 0xbe, 0x55, 0xed, 0x82, 0xbe,
  0x4e, 0x4f, 0xaa, 0xbe, 0xd3, 0x6a, 0x30, 0x3e, 0xd5, 0x85, 0x16, 0xbd,
  0x21, 0xa2, 0x25, 0xbe, 0x1f, 0x34, 0x99, 0xbd, 0x34, 0x8a, 0x10, 0x3d,
  0xdb, 0xb7, 0x47, 0xbe, 0xc4, 0xa3, 0x98, 0xbc, 0x7f, 0x63, 0x3d, 0xbe,
  0xfb, 0x2c, 0xae, 0xbc, 0xfe, 0x8e, 0x7a, 0x3d, 0xa9, 0x89, 0x82, 0xbb,
  0x17, 0x39, 0x0f, 0xbe, 0xde, 0x4f, 0x6a, 0x3d, 0x30, 0xbe, 0xa6, 0x3b,
  0x97, 0xcb, 0xaa, 0x3d, 0xb3, 0x4d, 0x19, 0xbd, 0xb8, 0x65, 0xee, 0xbc,
  0xfe, 0x1b, 0xc8, 0xbc, 0xa6, 0xc7, 0x1f, 0xbb, 0x3c, 0x65, 0x07, 0xbe,
  0xe4, 0xac, 0x1f, 0xbe, 0xaa, 0x79, 0xad, 0xbd, 0x41, 0x6d, 0x05, 0xbd,
  0x37, 0xe4, 0xbe, 0x3d, 0x03, 0xb3, 0x19, 0xbc, 0xc4, 0xe8, 0x76, 0xbe,
  0x85, 0x21, 0xc6, 0x3e, 0xa1, 0xef, 0x37, 0x3c, 0x95, 0x3b, 0xb9, 0x3c,
  0xcb, 0x7b, 0x2e, 0x3d, 0xe4, 0x83, 0xb1, 0xbc, 0x3f, 0x79, 0x25, 0xbe,
  0x2b, 0x14, 0xba, 0x3d, 0xd2, 0xa6, 0x19, 0xbe, 0x2e, 0x4c, 0x7d, 0xbe,
  0x4e, 0x71, 0x98, 0xbc, 0x74, 0x74, 0x89, 0x3d, 0xa1, 0x47, 0x9d, 0xbc,
  0xc2, 0x7f, 0xd3, 0xbd, 0xfd, 0x16, 0xea, 0x3d, 0xd9, 0x9c, 0xd0, 0xbd,
  0x53, 0xfa, 0x04, 0xbe, 0x44, 0xe8, 0x36, 0x3c, 0xe9, 0xfd, 0x36, 0xbe,
  0xe8, 0xc6, 0xa7, 0x3d, 0xd4, 0x69, 0x89, 0xbe, 0x04, 0x8c, 0x50, 0x3e,
  0xa9, 0xee, 0x4f, 0x3e, 0xec, 0x97, 0x86, 0xbd, 0x3f, 0x6f, 0x7f, 0xbe,
  0x25, 0xdc, 0x3b, 0xbe, 0x5b, 0x69, 0xa6, 0x3c, 0x09, 0xf9, 0x14, 0x3e,
  0xa1, 0x3e, 0x46, 0xbe, 0x2c, 0x7f, 0x8e, 0xbb, 0xa4, 0xc6, 0x64, 0xbc,
  0xac, 0x70, 0x8a, 0xbe, 0xed, 0x8a, 0x91, 0xbc, 0x69, 0xce, 0x06, 0xbe,
  0xb6, 0x4d, 0x20, 0xbe, 0x49, 0x8a, 0xa6, 0x3d, 0x79, 0x21, 0x95, 0xbe,
  0x19, 0xd9, 0x34, 0xbe, 0x38, 0x28, 0x05, 0xbd, 0xc3, 0x48, 0x81, 0x3c,
  0x10, 0x13, 0x6d, 0x3d, 0xbe, 0xad, 0x99, 0xbc, 0x4e, 0xb6, 0x36, 0xbe,
  0x35, 0xa7, 0x23, 0xbe, 0x39, 0xdc, 0x64, 0x3d, 0xda, 0x8f, 0x6f, 0xbd,
  0x2e, 0x94, 0x20, 0xbd, 0x1d, 0xe3, 0x2a, 0xbe, 0x7b, 0x70, 0x20, 0x3b,
  0xe4, 0x1f, 0x3d, 0x3e, 0x46, 0x02, 0x44, 0x3d, 0x1e, 0x2a, 0xd0, 0x3d,
  0x5d, 0x43, 0x45, 0xbe, 0xaa, 0xc3, 0x2d, 0xbe, 0x7c, 0xa2, 0x7f, 0xbe,
  0x5c, 0x49, 0x80, 0xbd, 0x67, 0x1c, 0xc8, 0x3d, 0x24, 0x48, 0x11, 0x3e,
  0x26, 0xc9, 0x80, 0xbe, 0x3f, 0xc5, 0xe1, 0xbc, 0x56, 0x9a, 0x2d, 0xbe,
  0x80, 0x6f, 0x2c, 0xbe, 0x1f, 0x33, 0x0b, 0x3e, 0x4a, 0x46, 0x18, 0x3e,
  0xb4, 0x12, 0x3f, 0x3e, 0xab, 0x1f, 0xb8, 0x3d, 0x30, 0x5d, 0xbd, 0xbd,
  0x26, 0x43, 0x1a, 0x3e, 0x7f, 0xee, 0x45, 0xbd, 0x15, 0x9e, 0xd5, 0x3b,
  0x12, 0x2f, 0xda, 0x3c, 0x0c, 0x34, 0x8b, 0x3c, 0x5b, 0xd2, 0xf2, 0xbb,
  0x37, 0xca, 0x8a, 0xbd, 0x42, 0xd1, 0x22, 0xbe, 0x94, 0x0d, 0xfa, 0xbd,
  0x56, 0x39, 0x95, 0xbd, 0xa5, 0xc4, 0x46, 0xbe, 0xd4, 0x57, 0x44, 0xbe,
  0x55, 0x62, 0x01, 0xbe, 0xbc, 0x39, 0x17, 0xbe, 0x0f, 0xfb, 0x64, 0x3e,
  0x99, 0x36, 0x0c, 0xbe, 0xc6, 0x6a, 0x97, 0xbe, 0x26, 0x3f, 0x30, 0x3d,
  0x30, 0x71, 0x47, 0x3d, 0xf0, 0x50, 0xae, 0x3d, 0x40, 0xcd, 0xcd, 0xbd,
  0x66, 0x72, 0x2c, 0x3e, 0xc0, 0xf7, 0x76, 0x3e, 0xb4, 0xa6, 0xe2, 0x3e,
  0x32, 0x20, 0x7a, 0x3d, 0x6b, 0x59, 0xaa, 0xbc, 0x02, 0x14, 0x33, 0x3e,
  0x81, 0x01, 0x20, 0xbe, 0x19, 0x39, 0x79, 0xbd, 0xb6, 0x3d, 0x0d, 0x3f,
  0x03, 0x2f, 0x10, 0xbc, 0xee, 0x30, 0x50, 0xbd, 0x67, 0x4f, 0x63, 0xbd,
  0x3c, 0x57, 0xf7, 0x3d, 0xf4, 0xba, 0xd2, 0xbd, 0x52, 0xa4, 0xd2, 0xbd,
  0xf3, 0x77, 0x85, 0x3d, 0xb1, 0x26, 0x21, 0x3b, 0x0f, 0xfd, 0xb1, 0x3c,
  0x12, 0x35, 0x8f, 0x3e, 0xb4, 0x56, 0x50, 0xbd, 0x58, 0x6c, 0x7e, 0xbd,
  0x28, 0xa9, 0x6a, 0xbd, 0x75, 0xc4, 0xd5, 0xbc, 0xa9, 0xc3, 0x82, 0x3d,
  0x7c, 0xba, 0x53, 0x3d, 0x3a, 0x8d, 0xd1, 0x3e, 0xe6, 0x8f, 0xab, 0x3d,
  0xfe, 0x2b, 0x3e, 0xbd, 0x1e, 0x78, 0xd2, 0x3c, 0x21, 0x83, 0xf9, 0x3e,
  0x25, 0x99, 0xfb, 0x3c, 0xca, 0xe5, 0xc7, 0x3d, 0x16, 0x59, 0x83, 0xbe,
  0x64, 0xdc, 0xe5, 0xbb, 0x19, 0x24, 0x69, 0xbd, 0x8b, 0x44, 0xe5, 0xbd,
  0x1a, 0x09, 0x02, 0x3d, 0x89, 0x5c, 0x2d, 0x3e, 0xbb, 0xf2, 0x27, 0xbd,
  0xcb, 0x14, 0xe0, 0x3e, 0xdc, 0x9b, 0x0f, 0xbe, 0x17, 0x82, 0xe0, 0x3d,
  0x5a, 0x7b, 0x18, 0xbe, 0x5a, 0x9e, 0x2d, 0xbe, 0xee, 0x6b, 0x85, 0x3d,
  0xfc, 0x35, 0x98, 0x3e, 0x09, 0xc8, 0x0c, 0xbe, 0xa3, 0x49, 0x7a, 0xbc,
  0x74, 0xca, 0x1d, 0xbd, 0xc6, 0xf5, 0x94, 0x3c, 0x83, 0xdc, 0x1c, 0xbc,
  0x6e, 0x77, 0x1f, 0xbe, 0x1e, 0xba, 0xa9, 0x3c, 0xc6, 0x50, 0x84, 0x3d,
  0xf7, 0x60, 0xd7, 0x3d, 0x0c, 0x49, 0xad, 0x3e, 0x13, 0xfb, 0x3f, 0xbe,
  0xf2, 0x54, 0xe0, 0xbd, 0x55, 0x05, 0x3e, 0xbe, 0xaf, 0x7b, 0x4d, 0xbe,
  0xd4, 0x7c, 0xfa, 0x3b, 0x1b, 0x2a, 0x89, 0xbd, 0x99, 0x11, 0x76, 0xbe,
  0xbf, 0x21, 0x33, 0x3d, 0x89, 0xf0, 0x28, 0x3e, 0x0a, 0x4f, 0xae, 0x3c,
  0x36, 0x11, 0x91, 0xbd, 0x0a, 0x82, 0x36, 0xbe, 0xb2, 0x70, 0x84, 0xbd,
  0x8f, 0x10, 0xcf, 0x3d, 0xf9, 0x7f, 0x44, 0x3d, 0x11, 0xba, 0x22, 0x3e,
  0x0e, 0x44, 0xf7, 0x3e, 0x36, 0x4e, 0xdf, 0xbd, 0x3b, 0xd3, 0x03, 0xbe,
  0x09, 0x3a, 0x30, 0x3e, 0x15, 0x8c, 0x06, 0x3e, 0x90, 0x4f, 0x29, 0xbe,
  0x60, 0xe1, 0x78, 0xbe, 0xc9, 0x01, 0x02, 0x3e, 0x1c, 0xac, 0x10, 0x3e,
  0x14, 0x49, 0xf8, 0x3d, 0x6b, 0x8b, 0x98, 0x3d, 0x76, 0x32, 0x09, 0xbe,
  0xec, 0x4a, 0x98, 0x3c, 0xfb, 0x82, 0x52, 0x3e, 0x64, 0x6f, 0xda, 0x3c,
  0x76, 0xbb, 0xd3, 0x3d, 0x2e, 0x98, 0x93, 0x3e, 0x5d, 0x71, 0x82, 0x3e,
  0xc0, 0x96, 0x88, 0xbc, 0xc5, 0xca, 0x7b, 0x3e, 0x64, 0x5e, 0xdb, 0x3d,
  0x9a, 0x5f, 0x87, 0xbd, 0x5b, 0x2e, 0x46, 0xbe, 0xc6, 0xe7, 0x10, 0x3e,
  0x65, 0x12, 0x8d, 0x3d, 0xe7, 0x46, 0xed, 0xbd, 0xd2, 0x60, 0xd9, 0x3c,
  0xe3, 0x84, 0xcd, 0xbd, 0xeb, 0x85, 0x20, 0xbd, 0xb9, 0x42, 0x16, 0xbe,
  0x3d, 0xc2, 0xe2, 0x3c, 0xae, 0xf9, 0xc8, 0xbc, 0x5b, 0xb7, 0xd6, 0x3d,
  0xe7, 0x39, 0x35, 0x3e, 0x36, 0x69, 0xec, 0xbd, 0x45, 0x2d, 0xf1, 0x3d,
  0x27, 0x54, 0x93, 0x3c, 0xf0, 0xb8, 0xdc, 0x3d, 0x1e, 0xee, 0xee, 0xbd,
  0xae, 0xde, 0x6f, 0xbd, 0x6d, 0x4d, 0xf5, 0xbd, 0x8e, 0x57, 0x5a, 0x3e,
  0xa3, 0x3e, 0xa3, 0x3e, 0xd3, 0xe9, 0x39, 0xbe, 0x32, 0xb4, 0x43, 0x3e,
  0x0e, 0xb8, 0x32, 0xbe, 0xb7, 0x71, 0x34, 0x3e, 0xdd, 0xae, 0xe8, 0x3d,
  0x7b, 0x93, 0x20, 0x3e, 0xd4, 0x1a, 0x59, 0xbe, 0xfe, 0x03, 0x18, 0x3e,
  0x65, 0x30, 0x9e, 0xbe, 0x91, 0xf3, 0x33, 0x3e, 0x2d, 0xc8, 0x3f, 0x3e,
  0xd2, 0x5f, 0xe6, 0xbd, 0x8e, 0xce, 0xcb, 0xbb, 0x77, 0x44, 0x33, 0xbe,
  0xd6, 0x7b, 0x96, 0x3e, 0x23, 0x2a, 0xd7, 0x3e, 0xe5, 0x43, 0x10, 0xbd,
  0x4c, 0xab, 0x9a, 0xbb, 0xe2, 0xb2, 0xb9, 0xbd, 0xf5, 0x36, 0x0f, 0xbe,
  0x4b, 0xb1, 0x9c, 0x3e, 0xdb, 0xd9, 0xb5, 0x3e, 0x93, 0xb7, 0x35, 0xbe,
  0x34, 0x56, 0x89, 0x3d, 0xc5, 0xa0, 0x35, 0x3e, 0xc9, 0x04, 0xe0, 0x3d,
  0x6f, 0x87, 0x0e, 0xbe, 0x4d, 0xc5, 0x98, 0xbd, 0x71, 0xf1, 0x1b, 0x3e,
  0x1d, 0x99, 0x87, 0xbe, 0x36, 0xe7, 0x8f, 0x3d, 0x01, 0x45, 0x0d, 0x3d,
  0x4e, 0x49, 0xe3, 0xbd, 0x7c, 0xbe, 0x17, 0x3e, 0xc5, 0x20, 0x71, 0xbd,
  0x04, 0x5b, 0x5d, 0x3e, 0xa6, 0x43, 0x8c, 0x3e, 0xa0, 0x6d, 0xcc, 0xbd,
  0x00, 0x18, 0xbc, 0xbd, 0x4d, 0x83, 0x69, 0x3e, 0x46, 0xa4, 0x2d, 0x3e,
  0xbe, 0x22, 0x76, 0x3e, 0xc9, 0xe2, 0xb4, 0x3d, 0x9e, 0x00, 0x2c, 0x3d,
  0x69, 0x15, 0xfa, 0xbd, 0xb7, 0xf6, 0xdc, 0xbd, 0xd9, 0xa2, 0xea, 0x3c,
  0x1f, 0x52, 0x38, 0x3e, 0x47, 0xa5, 0x05, 0xbe, 0x86, 0x3a, 0xbe, 0xbd,
  0x86, 0x7f, 0x31, 0x3e, 0xac, 0x46, 0x3c, 0x3e, 0x2b, 0xa7, 0xcd, 0x3e,
  0xf2, 0x85, 0x61, 0x3e, 0x50, 0xb2, 0xaa, 0x3d, 0x82, 0x5b, 0xfe, 0x3d,
  0xbd, 0x2c, 0x9b, 0x3d, 0xea, 0xcd, 0x58, 0x3e, 0x6e, 0xc8, 0x6f, 0x3c,
  0xe0, 0xe3, 0xde, 0x3d, 0xa1, 0xcc, 0x55, 0x3e, 0x26, 0xe7, 0x74, 0x3e,
  0x03, 0xb6, 0xeb, 0x3d, 0xa8, 0x12, 0x22, 0xbd, 0xd2, 0x83, 0x2c, 0xbe,
  0xb0, 0x23, 0x6a, 0x3e, 0xe0, 0x78, 0xd6, 0xbd, 0xc7, 0x1e, 0xa2, 0x3e,
  0xd4, 0x8c, 0xda, 0x3e, 0x73, 0xc5, 0x13, 0xbc, 0x67, 0xd9, 0x35, 0xbe,
  0x2c, 0x1d, 0x27, 0x3e, 0x8b, 0x43, 0xd4, 0x3c, 0x7f, 0x6a, 0xad, 0x3d,
  0x9f, 0xe0, 0x12, 0x3d, 0x8e, 0x6b, 0xd1, 0xbb, 0xb1, 0x2c, 0x25, 0x3e,
  0x4a, 0xfd, 0xd9, 0x3d, 0xa8, 0xab, 0x2a, 0x3d, 0x7a, 0x43, 0xbb, 0x3e,
  0x91, 0xfe, 0x76, 0xbd, 0x3a, 0xd0, 0x2f, 0x3d, 0xe9, 0x83, 0x4c, 0x3e,
  0x71, 0x0c, 0xd2, 0x3d, 0x09, 0xb1, 0xe5, 0x3e, 0x28, 0x9a, 0xd7, 0x3d,
  0x73, 0xf4, 0x20, 0xbe, 0x3f, 0x3c, 0x1f, 0x3e, 0xde, 0x4e, 0x89, 0xbe,
  0xb8, 0xbb, 0x01, 0xbe, 0x8a, 0x67, 0x50, 0x3e, 0x72, 0x62, 0x12, 0x3d,
  0x98, 0x09, 0x8a, 0x3d, 0x68, 0xcb, 0x43, 0xbd, 0xc7, 0xd7, 0xd6, 0x3e,
  0x3b, 0xfa, 0xa8, 0x3e, 0x8f, 0x81, 0x06, 0xbe, 0x1d, 0x16, 0x17, 0x3e,
  0x56, 0xf5, 0xc1, 0x3c, 0x14, 0x7c, 0x92, 0x3e, 0xe7, 0x54, 0x93, 0x3e,
  0x3e, 0xce, 0xcd, 0xbd, 0x7a, 0xda, 0xc5, 0xbe, 0x84, 0xc0, 0xc2, 0x3e,
  0x54, 0x88, 0xa0, 0xbe, 0x01, 0x46, 0x87, 0xbb, 0x63, 0x12, 0x01, 0xbb,
  0x10, 0xeb, 0x27, 0xbc, 0xe2, 0xc2, 0x01, 0xbe, 0xcd, 0x99, 0x62, 0x3d,
  0x5e, 0xf2, 0x4c, 0xbe, 0x93, 0xe0, 0x59, 0xbe, 0x15, 0xaa, 0x54, 0xbe,
  0xb8, 0x0a, 0x03, 0xbe, 0xf0, 0x23, 0x51, 0xbe, 0xdb, 0x08, 0x0e, 0x3e,
  0x38, 0xe0, 0x87, 0xbd, 0x64, 0x0a, 0x0b, 0xbe, 0x85, 0x81, 0x80, 0x3d,
  0xac, 0x4c, 0xf1, 0x3d, 0x23, 0xf3, 0xbc, 0x3d, 0xcc, 0xe6, 0x73, 0xbe,
  0xc0, 0x8d, 0x90, 0x3c, 0xf6, 0xf1, 0x26, 0xbd, 0x70, 0x40, 0x68, 0xbe,
  0x07, 0x18, 0x5a, 0xbd, 0x80, 0x68, 0x82, 0xbd, 0x0f, 0xaf, 0x89, 0xbd,
  0x61, 0xc6, 0xa4, 0xbd, 0xde, 0xe0, 0xe8, 0xbd, 0xa0, 0x41, 0x0c, 0xbd,
  0xe8, 0x76, 0x5b, 0x3e, 0x4c, 0x84, 0x0b, 0x3e, 0x18, 0xd9, 0x4b, 0x3d,
  0x7b, 0x25, 0x41, 0xbe, 0xdc, 0xad, 0x7a, 0x3d, 0x26, 0x9b, 0x81, 0xbd,
  0x12, 0xdc, 0x5c, 0x3c, 0x92, 0xdd, 0x31, 0x3c, 0xcb, 0x59, 0x20, 0xbe,
  0x07, 0x1d, 0x79, 0xbd, 0xb4, 0xe2, 0x53, 0xbe, 0x6f, 0xd3, 0x27, 0xbe,
  0x3d, 0x4c, 0x06, 0x3e, 0x0c, 0x89, 0x7a, 0xbd, 0x99, 0x9b, 0xb5, 0xbd,
  0x00, 0xdf, 0xbe, 0x3c, 0xfb, 0x0a, 0x32, 0x3e, 0xcd, 0x94, 0x58, 0xbe,
  0xa6, 0x51, 0x60, 0xbe, 0x65, 0x7e, 0x66, 0x3b, 0x62, 0x71, 0x05, 0x3d,
  0xf9, 0x49, 0x09, 0x3d, 0xcb, 0xcc, 0xd3, 0xbd, 0x6f, 0xf0, 0x49, 0x3d,
  0xda, 0x8a, 0x26, 0xbd, 0xe5, 0x25, 0x1e, 0x3e, 0x60, 0x48, 0x36, 0x3e,
  0x22, 0x29, 0x3b, 0xbe, 0x01, 0x61, 0x57, 0xbc, 0x11, 0x6a, 0x51, 0xbd,
  0x05, 0xfd, 0x48, 0xbe, 0xf4, 0x4e, 0x1b, 0xbe, 0xdc, 0x7a, 0x1d, 0xbe,
  0x0c, 0x6b, 0xcd, 0x3b, 0x5e, 0x6e, 0x34, 0x3e, 0x88, 0xf9, 0x01, 0xbe,
  0xd7, 0xcd, 0xce, 0x3d, 0xee, 0x5f, 0xe5, 0x3d, 0xa3, 0x9e, 0xc8, 0x3d,
  0xe8, 0x9d, 0x27, 0x3d, 0x3a, 0x46, 0x8e, 0x3b, 0x83, 0x0f, 0x2d, 0xbe,
  0xf5, 0x91, 0xe3, 0x3c, 0x04, 0x66, 0x03, 0xbd, 0xa4, 0x68, 0x32, 0x3d,
  0x7d, 0x55, 0x07, 0xbe, 0x7a, 0x0f, 0x56, 0xbe, 0xd7, 0x1f, 0x30, 0xbe,
  0x54, 0xca, 0x3d, 0x3d, 0xca, 0xf9, 0x04, 0x3e, 0xd0, 0xcd, 0x92, 0xbd,
  0x01, 0xf4, 0x4d, 0xbc, 0x5d, 0xbd, 0xcc, 0x3c, 0x7c, 0x73, 0x2f, 0x3e,
  0xe5, 0x55, 0x47, 0xbe, 0x5e, 0x78, 0xa6, 0xbb, 0xfb, 0xc7, 0x97, 0xbd,
  0x69, 0x52, 0x55, 0xbb, 0x8b, 0xb7, 0xad, 0x3d, 0xdf, 0x50, 0x3a, 0xbe,
  0x59, 0x7d, 0xc5, 0x3d, 0x69, 0x5a, 0x02, 0xbe, 0x7a, 0xb0, 0x0d, 0xbe,
  0x10, 0x67, 0x63, 0x3c, 0x5a, 0x50, 0x42, 0xbe, 0x6c, 0x8a, 0x2b, 0xbd,
  0x63, 0x6a, 0x65, 0xbd, 0x39, 0xcd, 0x7f, 0x3d, 0xbe, 0x3a, 0xc2, 0xbd,
  0x2d, 0x3a, 0x14, 0xbe, 0x9d, 0x4e, 0x96, 0xbd, 0x11, 0x76, 0x66, 0x3d,
  0x91, 0x46, 0xda, 0xbd, 0xdf, 0xe0, 0x47, 0xbe, 0x71, 0xa6, 0x8e, 0xbe,
  0xd7, 0x4f, 0xa1, 0x3d, 0x7d, 0x8a, 0xee, 0xbd, 0xf2, 0xde, 0x7d, 0xbd,
  0x13, 0x75, 0x20, 0xbd, 0x9c, 0xcc, 0x53, 0xbd, 0x56, 0x94, 0x45, 0x3e,
  0x18, 0x48, 0x25, 0x3d, 0x54, 0x82, 0xb3, 0xbe, 0x8b, 0x90, 0x86, 0xbc,
  0xe9, 0xce, 0xce, 0x3d, 0x21, 0x4a, 0x8e, 0xbd, 0x86, 0xd7, 0xe4, 0xbe,
  0xfb, 0x8d, 0xf4, 0xbd, 0x18, 0xe6, 0x16, 0xbe, 0xa2, 0xe9, 0x81, 0x3d,
  0x02, 0x80, 0xdf, 0xbd, 0x2c, 0xf8, 0x48, 0xbe, 0x64, 0xfe, 0x7a, 0x3e,
  0x34, 0xfd, 0xdc, 0xbe, 0xe2, 0xa1, 0x86, 0xbe, 0x09, 0x3d, 0x1b, 0xbd,
  0xc9, 0xf9, 0x2b, 0x3e, 0x74, 0xe3, 0x20, 0xbe, 0x02, 0x4e, 0x6e, 0xbe,
  0x2e, 0xb8, 0xe4, 0xbc, 0xec, 0x8b, 0x85, 0x3d, 0xf1, 0x00, 0x87, 0xbe,
  0xb6, 0x8d, 0x13, 0xbe, 0x30, 0x63, 0x8d, 0xbe, 0x68, 0x23, 0x32, 0xbe,
  0xa2, 0x00, 0x56, 0xbe, 0xc6, 0x46, 0x2b, 0xbe, 0xe0, 0x92, 0x8f, 0xbd,
  0x2f, 0xc7, 0x57, 0x3d, 0xb3, 0x67, 0xb2, 0xbe, 0x6a, 0x1a, 0x33, 0xbe,
  0x98, 0x44, 0xe0, 0x3c, 0x1f, 0x39, 0x5e, 0xbe, 0xff, 0x95, 0x1e, 0x3e,
  0xb8, 0x88, 0x94, 0x3d, 0xd4, 0x20, 0x8c, 0x3d, 0xbd, 0xb0, 0x79, 0xbe,
  0x15, 0x76, 0xfb, 0xbd, 0x2e, 0x1c, 0x17, 0xbd, 0xb3, 0x9f, 0x47, 0xbe,
  0xb3, 0x02, 0x92, 0x3d, 0x39, 0xef, 0xb0, 0xbd, 0x9d, 0xd7, 0x39, 0xbe,
  0xa8, 0x54, 0x57, 0xbe, 0xc4, 0xcd, 0xac, 0x3d, 0x7b, 0xbf, 0xe6, 0xbe,
  0x99, 0x6e, 0x3c, 0xbe, 0xa6, 0x84, 0x60, 0x3d, 0x74, 0xe9, 0x8d, 0x3d,
  0x95, 0x61, 0x65, 0x3d, 0xfe, 0x6b, 0x29, 0xbe, 0x6e, 0x60, 0xb4, 0x3d,
  0xca, 0xac, 0xb6, 0x3d, 0xab, 0x95, 0x90, 0x3c, 0xc1, 0xa5, 0x92, 0xbe,
  0x08, 0xe2, 0x75, 0x3e, 0xf3, 0xae, 0x48, 0xbe, 0xeb, 0xf8, 0x0a, 0xbd,
  0x8c, 0x64, 0x63, 0x3e, 0x09, 0x49, 0x39, 0xbd, 0xa8, 0xb1, 0x3e, 0xbd,
  0x72, 0xa1, 0x6f, 0xbe, 0x43, 0x6f, 0x22, 0xbd, 0x11, 0x60, 0x3f, 0xbd,
  0xcb, 0xce, 0x0e, 0x3e, 0xb8, 0xdd, 0xe5, 0x3c, 0x1b, 0x11, 0x1e, 0x3e,
  0xfa, 0xfe, 0xd9, 0xbd, 0x34, 0x51, 0x00, 0x3d, 0x25, 0x2a, 0x30, 0xbe,
  0xdb, 0x10, 0x78, 0xbd, 0xb6, 0xe3, 0x98, 0xbe, 0x15, 0xb9, 0x05, 0xbe,
  0x79, 0x7b, 0x15, 0xbe, 0x32, 0xd8, 0xe3, 0x3d, 0x59, 0x9e, 0x19, 0xbe,
  0xc5, 0x74, 0x17, 0xbd, 0xf0, 0x0f, 0x95, 0xbe, 0x1b, 0x89, 0x7c, 0xbe,
  0x10, 0x1b, 0x7c, 0x3e, 0x8d, 0xc9, 0x16, 0x3e, 0xf1, 0x7f, 0x41, 0x3c,
  0x8e, 0x27, 0xb4, 0x3d, 0x4b, 0xd5, 0xcb, 0xbd, 0x3b, 0x91, 0x36, 0xbe,
  0x08, 0x23, 0x3e, 0x3d, 0x81, 0x1b, 0x4d, 0xbe, 0xfc, 0xc8, 0x1f, 0x3d,
  0xc4, 0xd2, 0x29, 0xbe, 0xab, 0x3b, 0x9e, 0x3d, 0x97, 0xdc, 0x15, 0x3d,
  0x28, 0x2d, 0xf3, 0xbd, 0xce, 0xc2, 0x11, 0x3e, 0xf4, 0x66, 0x24, 0xbe,
  0x08, 0xb9, 0x58, 0xbe, 0xa5, 0x12, 0xaa, 0x3c, 0x74, 0xd7, 0x33, 0xbe,
  0x81, 0xc5, 0x0a, 0x3e, 0x0e, 0x76, 0xb8, 0xbd, 0xfe, 0xd8, 0xba, 0xbd,
  0xca, 0xa8, 0x5a, 0xbd, 0x96, 0xc6, 0x78, 0xbe, 0xa6, 0x40, 0xcc, 0xbc,
  0xff, 0x6a, 0x12, 0x3c, 0xdb, 0x00, 0x43, 0xbe, 0xa9, 0xbd, 0x37, 0x3e,
  0x99, 0x1e, 0x50, 0xbe, 0xfb, 0x24, 0x85, 0x3d, 0x14, 0xc6, 0x6f, 0x3e,
  0xfb, 0x08, 0xad, 0xbe, 0x36, 0x6a, 0xca, 0xbd, 0xca, 0x22, 0x5c, 0x3e,
  0xc7, 0x59, 0xc8, 0xbd, 0xe2, 0x29, 0x08, 0xbe, 0x87, 0xb4, 0x98, 0xbe,
  0x3c, 0xcf, 0x80, 0xbe, 0x2a, 0x1b, 0xb4, 0x3c, 0x95, 0x2c, 0x82, 0xbd,
  0xa1, 0x51, 0x9b, 0xbe, 0xad, 0x78, 0xd9, 0xbc, 0xe0, 0xd8, 0xac, 0xbd,
  0x42, 0x4c, 0xdd, 0xbc, 0x02, 0xa5, 0xa5, 0xbe, 0xee, 0x91, 0x87, 0x3e,
  0x5e, 0x77, 0x1d, 0x3f, 0xb7, 0xb4, 0xef, 0xbd, 0xfc, 0xad, 0x0d, 0x3e,
  0x53, 0xd4, 0x0d, 0x3e, 0xef, 0x81, 0x55, 0xbe, 0xc1, 0xdc, 0xf0, 0x3d,
  0xf3, 0xc5, 0x1f, 0x3e, 0x08, 0xf4, 0x4d, 0xbe, 0x71, 0xd9, 0x34, 0x3e,
  0xff, 0x82, 0xab, 0xbe, 0xa3, 0xd3, 0x42, 0x3e, 0xd6, 0x1e, 0x77, 0xbc,
  0x34, 0x35, 0xc6, 0xbe, 0xc1, 0xb9, 0x81, 0xbb, 0xf0, 0x36, 0x01, 0xbe,
  0x69, 0x09, 0x92, 0xbd, 0x27, 0x0d, 0xee, 0x3e, 0x35, 0xf8, 0xc5, 0xbb,
  0xfa, 0x44, 0x0b, 0x3e, 0xf7, 0x00, 0x91, 0xbd, 0x48, 0xe2, 0x81, 0x3c,
  0x96, 0x25, 0xba, 0x3e, 0x3c, 0x9e, 0xb0, 0x3c, 0x70, 0x45, 0xac, 0xbe,
  0xe5, 0x47, 0x55, 0x3c, 0x09, 0xdf, 0x13, 0xbd, 0xc6, 0x75, 0xb8, 0xbc,
  0x6b, 0x58, 0xe9, 0x3c, 0x6f, 0x5d, 0x6d, 0xbe, 0x82, 0xc2, 0xae, 0xbd,
  0x37, 0x7a, 0x90, 0xbd, 0x7d, 0xd7, 0x9b, 0x3b, 0x11, 0x4f, 0xec, 0x3d,
  0xcd, 0x66, 0xb7, 0xbd, 0xb1, 0xb0, 0x81, 0x3c, 0x17, 0x9d, 0x17, 0xbe,
  0x48, 0x95, 0xc1, 0xbd, 0x77, 0x90, 0xbd, 0x3e, 0xfb, 0x65, 0x5c, 0xbd,
  0x12, 0x66, 0x61, 0xbe, 0xd4, 0x93, 0xe8, 0x3d, 0x0c, 0x9c, 0xad, 0xbd,
  0x0f, 0xcc, 0x9a, 0x3e, 0x91, 0x3e, 0x1e, 0xbd, 0xd7, 0xe9, 0x87, 0xbd,
  0x34, 0x47, 0xf9, 0xbc, 0x98, 0x5c, 0x8a, 0x3d, 0x23, 0xaa, 0xd7, 0x3d,
  0x63, 0xf7, 0xc8, 0x3c, 0x01, 0x56, 0xab, 0xbd, 0xf2, 0xa0, 0x3e, 0xba,
  0x85, 0x4b, 0x76, 0x3b, 0xfb, 0xb8, 0x8b, 0x3c, 0x5f, 0xeb, 0x00, 0x3f,
  0x75, 0x93, 0x77, 0x3e, 0x08, 0x45, 0xd1, 0xbc, 0x30, 0xea, 0x42, 0x3e,
  0x3f, 0xa9, 0xd4, 0x3d, 0x2d, 0x8f, 0x8d, 0x3e, 0xd4, 0x6a, 0x6b, 0x3e,
  0x38, 0x52, 0x52, 0xbe, 0xfd, 0x0c, 0xbd, 0x3d, 0x14, 0x59, 0x2c, 0x3e,
  0x34, 0x10, 0x36, 0x3e, 0xc6, 0x5e, 0x78, 0x3e, 0xfd, 0xf0, 0x2c, 0xba,
  0x0e, 0x8f, 0xc8, 0x3d, 0xc4, 0x0c, 0xe6, 0xbd, 0xd8, 0x67, 0xc2, 0x3d,
  0xb2, 0xc1, 0x00, 0x3f, 0x10, 0x5c, 0xb5, 0x3c, 0xa3, 0xde, 0x2c, 0xbe,
  0x08, 0xa3, 0xb7, 0x3d, 0x01, 0x66, 0xdb, 0x3d, 0x43, 0x01, 0xe1, 0x3d,
  0x57, 0x52, 0x82, 0x3d, 0x15, 0x7d, 0xa7, 0xbd, 0x3f, 0x28, 0xac, 0xba,
  0xca, 0xc0, 0xb4, 0x3d, 0x8a, 0xce, 0x99, 0x3e, 0xaa, 0xc4, 0x3a, 0x3e,
  0x39, 0xae, 0xae, 0xbd, 0xbe, 0xed, 0x6d, 0x3d, 0x6d, 0xd2, 0xb3, 0xbd,
  0xc9, 0x3e, 0x49, 0x3e, 0x56, 0xeb, 0x16, 0x3f, 0xbc, 0xd7, 0x07, 0x3d,
  0xee, 0xad, 0x12, 0xbe, 0x56, 0x14, 0xa5, 0x3e, 0x16, 0x08, 0xa1, 0xbd,
  0x25, 0xd2, 0x71, 0x3e, 0x46, 0xc5, 0x2e, 0x3e, 0xea, 0xb9, 0x4c, 0xbe,
  0xb5, 0x43, 0x36, 0xbb, 0xdc, 0x49, 0x08, 0xbe, 0x70, 0x2f, 0x5d, 0x3d,
  0xd1, 0x00, 0x99, 0x3e, 0x00, 0x95, 0x6b, 0x3e, 0x64, 0xe5, 0x2f, 0x3e,
  0x10, 0xd9, 0xb3, 0xbc, 0x56, 0xec, 0x92, 0x3e, 0x5d, 0x97, 0x57, 0x3e,
  0x39, 0xc0, 0x1e, 0x3e, 0x78, 0x3f, 0x6f, 0xbe, 0x22, 0x99, 0xac, 0x3e,
  0xd8, 0x7b, 0x12, 0xbf, 0x73, 0xd6, 0x0c, 0xbe, 0x85, 0x7b, 0x69, 0xbd,
  0xd5, 0x69, 0xad, 0xbe, 0xfb, 0x9f, 0x0f, 0xbd, 0xc8, 0xfe, 0xb2, 0xbc,
  0xca, 0x95, 0x12, 0x3e, 0x77, 0x23, 0x25, 0xbe, 0x25, 0xf4, 0x75, 0xbe,
  0x1e, 0xba, 0x01, 0xbd, 0x21, 0x0e, 0x35, 0xbd, 0x04, 0x5a, 0x9d, 0xbd,
  0x51, 0x33, 0x94, 0xbe, 0xee, 0x1e, 0x79, 0xbe, 0x0b, 0x70, 0x19, 0xbe,
  0x2b, 0xcf, 0x7e, 0x3d, 0x38, 0xd3, 0x56, 0xbd, 0x8f, 0x92, 0x49, 0xbe,
  0xa6, 0xb2, 0x07, 0xbe, 0x3c, 0xab, 0xb3, 0xbc, 0xa0, 0xf1, 0xb7, 0x3d,
  0x9e, 0x34, 0x70, 0x3e, 0x4e, 0x04, 0xbf, 0xbd, 0x10, 0x73, 0x1f, 0x3e,
  0x5f, 0xb5, 0x08, 0xbe, 0xf2, 0x19, 0xb8, 0x3d, 0xb6, 0x6c, 0x27, 0x3e,
  0xbc, 0x4f, 0xef, 0x3d, 0x39, 0x57, 0x6c, 0xbe, 0x77, 0xfc, 0x2d, 0xbe,
  0x56, 0x30, 0x6f, 0x3c, 0x90, 0x14, 0x57, 0xbe, 0x52, 0x07, 0x30, 0xbe,
  0x21, 0x11, 0xdd, 0xbd, 0x17, 0x55, 0x4e, 0xbe, 0x86, 0x7d, 0x45, 0xbe,
  0x09, 0x6d, 0x0a, 0x3e, 0xda, 0xaa, 0x9b, 0x3c, 0x35, 0xfa, 0x9a, 0x3d,
  0x3b, 0xe4, 0x1d, 0xbe, 0x56, 0x3b, 0x83, 0xbe, 0x06, 0x3b, 0x06, 0xbe,
  0xa3, 0x48, 0x56, 0xbe, 0x05, 0x7f, 0xa5, 0x3d, 0x84, 0xd7, 0x2b, 0x3e,
  0x23, 0xef, 0x72, 0xbc, 0x83, 0xe4, 0x26, 0xbd, 0x2f, 0xf9, 0xe7, 0xbd,
  0x8c, 0x0d, 0xaa, 0xbd, 0x2d, 0xa3, 0x64, 0xbe, 0x10, 0x2b, 0x07, 0x3e,
  0x04, 0x0d, 0xae, 0xbd, 0x70, 0xcc, 0xd7, 0x3d, 0xa3, 0x44, 0x00, 0xbe,
  0xfc, 0x59, 0x65, 0xbe, 0xf6, 0x56, 0x08, 0xbe, 0xd4, 0x8b, 0x93, 0xbe,
  0x7f, 0xf4, 0xac, 0xbe, 0xfb, 0xd9, 0x3e, 0xbe, 0x43, 0xff, 0x14, 0xbe,
  0x58, 0x31, 0x53, 0xbe, 0x85, 0x7c, 0x34, 0x3e, 0x05, 0x3a, 0xdc, 0xbd,
  0x1d, 0x50, 0xda, 0x3d, 0xba, 0x75, 0x02, 0x3e, 0x22, 0xe5, 0xca, 0xbd,
  0x9f, 0x6b, 0xf4, 0x3d, 0x29, 0x65, 0x12, 0x3d, 0x06, 0xc4, 0x64, 0xbd,
  0xa0, 0xc7, 0x0c, 0x3d, 0x45, 0xfb, 0x84, 0x3d, 0x2c, 0x4e, 0x18, 0xbe,
  0x61, 0x14, 0x79, 0xbe, 0x0d, 0xeb, 0x33, 0xbe, 0x25, 0x07, 0xdb, 0x3d,
  0x3e, 0x1e, 0x31, 0x3e, 0xd5, 0xd4, 0x2b, 0x3d, 0x01, 0x70, 0xb1, 0x3d,
  0x68, 0xe2, 0x38, 0xbe, 0x19, 0x16, 0x1f, 0xbe, 0x36, 0x81, 0x49, 0xbe,
  0xd9, 0xdc, 0x6d, 0x3c, 0xfb, 0x05, 0x2a, 0x3e, 0x8a, 0xf8, 0x8e, 0xbe,
  0x3d, 0xa8, 0xc8, 0x3d, 0x6e, 0x50, 0x80, 0xbe, 0x35, 0x77, 0xa8, 0x3d,
  0xe2, 0xf5, 0x61, 0x3b, 0xcb, 0x46, 0x6b, 0xbe, 0x07, 0xa8, 0x4a, 0xbe,
  0x8b, 0xb8, 0xee, 0xbb, 0xeb, 0x4e, 0x3c, 0xbe, 0x04, 0x78, 0x10, 0x3e,
  0x0b, 0x24, 0xd3, 0x3c, 0x46, 0x6f, 0xdf, 0x39, 0x0e, 0xdc, 0x71, 0xbb,
  0x8d, 0x48, 0x50, 0x3d, 0x44, 0x7b, 0x1a, 0x3e, 0xd3, 0x01, 0xd0, 0xbd,
  0x9a, 0x11, 0x5d, 0x3d, 0x58, 0x0e, 0x55, 0xbd, 0x68, 0x14, 0x23, 0xbd,
  0xfc, 0x29, 0x9b, 0x3a, 0xf4, 0x57, 0x7a, 0x3d, 0x61, 0x78, 0x34, 0xbe,
  0xd9, 0xdb, 0x7b, 0xbd, 0xad, 0x02, 0x11, 0x3e, 0x1c, 0xa7, 0x49, 0x3d,
  0xbe, 0xc5, 0x7e, 0xbd, 0xa3, 0x98, 0xc4, 0xbd, 0x9c, 0xa8, 0x61, 0xbd,
  0x69, 0x93, 0xd7, 0x3d, 0xd5, 0xf5, 0x18, 0xbe, 0xde, 0xd6, 0xb0, 0xbe,
  0xd3, 0x09, 0xb8, 0xbe, 0xb0, 0x3e, 0x7a, 0xbe, 0x49, 0x80, 0x6f, 0xbe,
  0x90, 0xbf, 0x0e, 0xbe, 0x41, 0xad, 0x0c, 0x3e, 0xe2, 0x7b, 0xe6, 0xbd,
  0x44, 0x1e, 0x75, 0xbe, 0x1b, 0x73, 0x28, 0x3e, 0xbf, 0xf3, 0x01, 0x3e,
  0xfb, 0x14, 0x64, 0xbe, 0xad, 0x22, 0x10, 0xbe, 0x2b, 0x8f, 0x2e, 0xbc,
  0xcd, 0x4d, 0x85, 0xbe, 0x43, 0x31, 0x2f, 0x3e, 0x0d, 0xe8, 0xbd, 0xbd,
  0xb8, 0x6e, 0x81, 0xbc, 0x95, 0xaa, 0x97, 0x3e, 0x17, 0x5d, 0x21, 0xbd,
  0x05, 0xae, 0xba, 0x3d, 0xf4, 0x7e, 0x9e, 0xbd, 0xe6, 0xb5, 0xa9, 0xbd,
  0x4d, 0x82, 0xe4, 0x3c, 0x01, 0xef, 0x2b, 0xbe, 0xa5, 0x8d, 0x97, 0xbd,
  0xf6, 0x34, 0xcb, 0x3d, 0x1b, 0xad, 0xdc, 0x3a, 0x82, 0xf7, 0x7e, 0x3e,
  0x1f, 0x5c, 0x0e, 0xbd, 0xa1, 0xea, 0xb2, 0xbd, 0x1f, 0x2d, 0x8e, 0x3e,
  0x85, 0x54, 0x17, 0xbd, 0xb5, 0xac, 0x1f, 0xbe, 0x49, 0x49, 0xa1, 0x3d,
  0x9b, 0xe4, 0x2d, 0xbd, 0x6b, 0x9a, 0x07, 0x3e, 0x96, 0x0c, 0xe6, 0xbd,
  0xa6, 0xca, 0x13, 0x3e, 0xaf, 0xf4, 0x54, 0x3e, 0xb0, 0xc1, 0x2d, 0xbe,
  0xc6, 0x63, 0x19, 0xbe, 0xcb, 0xb5, 0x3f, 0xbe, 0x9f, 0x47, 0x33, 0x3e,
  0x05, 0xba, 0x93, 0x3e, 0x01, 0x5a, 0x4a, 0xbe, 0x9b, 0x38, 0xe7, 0x3c,
  0x2a, 0xb7, 0x2f, 0x3e, 0xd3, 0x68, 0x09, 0xbe, 0xb7, 0xf3, 0xbd, 0xbd,
  0x61, 0xec, 0x29, 0x3c, 0x25, 0x54, 0x95, 0xbc, 0xd3, 0xb0, 0x41, 0xbe,
  0x4f, 0xc5, 0x70, 0xbd, 0xff, 0xc7, 0xa0, 0xbd, 0x0c, 0x94, 0x60, 0x3e,
  0x03, 0x5e, 0x25, 0xbe, 0xa7, 0x3b, 0x4d, 0xbe, 0x15, 0xb6, 0xee, 0xbd,
  0x90, 0x52, 0x3e, 0x3e, 0x67, 0x0b, 0x07, 0x3e, 0x1f, 0xaa, 0x59, 0x3e,
  0x3f, 0x69, 0x8d, 0x3c, 0xb0, 0x0c, 0x07, 0x3e, 0x52, 0xc1, 0x63, 0x3e,
  0xda, 0x75, 0x2b, 0x3d, 0x56, 0xfe, 0x35, 0x3e, 0x6b, 0x21, 0xd3, 0xbb,
  0x28, 0x4e, 0xe2, 0xbd, 0x9b, 0xa8, 0xea, 0x3c, 0x7e, 0x57, 0x04, 0x3e,
  0xae, 0xf5, 0x14, 0x3e, 0xf0, 0xa1, 0x31, 0xbd, 0x2a, 0xbc, 0x3a, 0x3e,
  0xfc, 0xea, 0x07, 0xbe, 0x12, 0xf7, 0x12, 0xbe, 0x4b, 0x22, 0x75, 0x3e,
  0x23, 0xc8, 0x0c, 0x3d, 0x69, 0x16, 0x4f, 0x3e, 0x89, 0x90, 0xea, 0x3d,
  0x41, 0x30, 0xb8, 0xbc, 0x85, 0x6c, 0x80, 0xbd, 0x20, 0xa0, 0xf9, 0xbc,
  0xdb, 0x4d, 0x82, 0xbb, 0x7f, 0xe1, 0x47, 0xbe, 0xc4, 0xea, 0xd8, 0x3c,
  0xca, 0x06, 0xa4, 0x3a, 0x3a, 0xd3, 0xfc, 0x3d, 0x19, 0x6b, 0x9b, 0xbe,
  0xaf, 0xdb, 0x4c, 0x3c, 0x6e, 0x5c, 0xac, 0xbd, 0xdb, 0x9c, 0x02, 0xbe,
  0x8e, 0x10, 0x0a, 0x3f, 0x1a, 0x35, 0xac, 0x3d, 0x21, 0x82, 0x79, 0xbe,
  0x7a, 0xdb, 0x1a, 0x3d, 0x36, 0xe5, 0xf2, 0xbd, 0x8c, 0xa5, 0xd9, 0xbc,
  0xa5, 0x0d, 0x8e, 0xbd, 0x40, 0x45, 0x8c, 0x3c, 0xca, 0xc5, 0x2e, 0x3c,
  0x9d, 0xc0, 0xeb, 0xbc, 0x2b, 0x11, 0x26, 0xbd, 0xc0, 0x0d, 0x85, 0x3e,
  0xc8, 0xd5, 0xa7, 0xbe, 0x85, 0xc2, 0xdb, 0xbd, 0x2a, 0x5d, 0x68, 0xbd,
  0x7a, 0x24, 0x78, 0xbc, 0xc9, 0xd3, 0x51, 0x3e, 0xd3, 0x28, 0x1f, 0xbe,
  0xbc, 0xfb, 0xd2, 0x3b, 0x1a, 0xf6, 0x6e, 0x3e, 0xae, 0x16, 0xd9, 0xbd,
  0x37, 0x42, 0x55, 0xbe, 0x2f, 0x4b, 0x09, 0xbe, 0xa8, 0xaf, 0x30, 0xbe,
  0x76, 0xbb, 0xde, 0x3d, 0x7e, 0xe9, 0xfd, 0xbd, 0x72, 0x84, 0xe5, 0x3c,
  0x7c, 0x41, 0xf0, 0x3c, 0xae, 0x0a, 0xc3, 0xbd, 0x4b, 0x04, 0xa1, 0x3d,
  0x32, 0xa5, 0x49, 0xbe, 0xf6, 0xff, 0x21, 0x3e, 0x88, 0x9d, 0x3b, 0xbc,
  0x9c, 0xf6, 0x5f, 0xbe, 0xf8, 0xfc, 0xa5, 0xbe, 0x2e, 0xd4, 0x9f, 0x3c,
  0x96, 0x0a, 0x91, 0x3c, 0x80, 0x74, 0xe5, 0xbd, 0xcf, 0xe3, 0x6c, 0xbe,
  0x67, 0x82, 0x54, 0xbe, 0x5f, 0x83, 0x18, 0x3e, 0x8d, 0x9e, 0xb4, 0x3b,
  0xa0, 0xf1, 0x47, 0xbd, 0xad, 0xcf, 0xe4, 0x3c, 0xab, 0x11, 0x35, 0xbe,
  0x8c, 0x3f, 0x3a, 0x3a, 0xa2, 0x9f, 0x4f, 0xbe, 0x84, 0xa9, 0x4d, 0xbd,
  0x49, 0x10, 0x6e, 0xbd, 0x1f, 0x3e, 0xd4, 0xbc, 0xc0, 0xc7, 0x41, 0xbe,
  0x8e, 0x74, 0x25, 0x3d, 0x4b, 0x9a, 0x37, 0xbd, 0x6f, 0xd2, 0x3a, 0x3d,
  0x65, 0x7b, 0x4e, 0xbd, 0x16, 0x30, 0x5e, 0xbe, 0xe0, 0x7e, 0x75, 0xbd,
  0x78, 0xfc, 0x49, 0xbe, 0x5d, 0xbf, 0x75, 0x3d, 0x79, 0x5a, 0x64, 0xbe,
  0x55, 0x26, 0x5c, 0xbe, 0xd8, 0x8e, 0x7c, 0xbd, 0xb5, 0xe2, 0xc1, 0x3d,
  0x7e, 0x3a, 0xc6, 0x3d, 0xc3, 0xc5, 0xdb, 0xbd, 0x7c, 0x74, 0xdd, 0xbc,
  0xde, 0xac, 0x02, 0x3d, 0x0b, 0x6c, 0x5b, 0xbd, 0x03, 0x6d, 0x2d, 0xbe,
  0x38, 0xc0, 0xce, 0x3d, 0xa9, 0xa1, 0x32, 0xbe, 0xd0, 0xd7, 0x7f, 0xbe,
  0x59, 0x86, 0xb3, 0x3d, 0xe5, 0xc5, 0x24, 0xbe, 0x41, 0x3e, 0x29, 0x3e,
  0xeb, 0x59, 0xe3, 0xbd, 0x6c, 0x37, 0x33, 0xbe, 0x63, 0x6a, 0x3d, 0xbe,
  0x97, 0xf8, 0x13, 0xbe, 0xf4, 0x95, 0xac, 0xbd, 0x4a, 0xe1, 0x83, 0xbe,
  0x59, 0xd8, 0x64, 0x3e, 0xdb, 0xfc, 0xc5, 0x3c, 0xcd, 0x6a, 0x82, 0xbe,
  0x22, 0xd4, 0xf3, 0x3d, 0x67, 0xa9, 0x6c, 0xbd, 0xae, 0xe1, 0x7b, 0xbd,
  0xd6, 0xb7, 0xc0, 0xbe, 0xa3, 0xf8, 0x32, 0x3e, 0xba, 0x8b, 0x88, 0x3e,
  0x04, 0x2a, 0xa9, 0x39, 0x12, 0x39, 0x53, 0xbe, 0xee, 0x49, 0x08, 0xbe,
  0xae, 0x0d, 0xff, 0xbb, 0xf3, 0xaa, 0x01, 0x3d, 0x3b, 0xa8, 0xc2, 0x3d,
  0x33, 0x2f, 0xae, 0x3d, 0xc2, 0x55, 0x18, 0x3e, 0x27, 0xe3, 0x85, 0xbd,
  0x51, 0x26, 0xd9, 0xbd, 0xd8, 0x68, 0x56, 0x3e, 0x09, 0x6f, 0x8c, 0x3d,
  0x59, 0xe9, 0x21, 0x3d, 0xe3, 0x23, 0x1c, 0xbe, 0xc1, 0xd2, 0x15, 0x3e,
  0x0b, 0x82, 0x1c, 0x3e, 0x1c, 0xfb, 0x11, 0xbe, 0xca, 0x41, 0x17, 0xbe,
  0x73, 0xe0, 0x51, 0xbd, 0x45, 0x03, 0xbc, 0xbd, 0xe0, 0x69, 0x37, 0x3e,
  0x01, 0x03, 0x21, 0xbe, 0x21, 0x6f, 0x17, 0x3b, 0x59, 0x2e, 0x6a, 0x3e,
  0xa1, 0x6f, 0x09, 0x3e, 0x11, 0x50, 0x89, 0x3d, 0x43, 0x95, 0x17, 0x3e,
  0x1d, 0xe3, 0xa2, 0xbd, 0xf0, 0x9d, 0x16, 0x3e, 0x33, 0xbc, 0x7c, 0xbd,
  0x02, 0xe0, 0x3f, 0x3d, 0xbd, 0xd0, 0xd7, 0x3b, 0xf9, 0x39, 0x80, 0xbd,
  0xbc, 0x7b, 0x1b, 0xbe, 0x16, 0x05, 0xbe, 0xbb, 0x9f, 0x13, 0x13, 0xbe,
  0x5f, 0x31, 0xd8, 0xbd, 0x0b, 0xd5, 0x10, 0xbe, 0x92, 0x97, 0xb8, 0x3d,
  0x67, 0x26, 0xc8, 0x3d, 0x4b, 0x9b, 0xa0, 0x3e, 0x89, 0x61, 0xa0, 0xbd,
  0x21, 0xee, 0xe8, 0x3d, 0xe0, 0xbf, 0x4c, 0xbd, 0xa4, 0xa3, 0xff, 0x3d,
  0x05, 0xd7, 0x31, 0x3d, 0x7d, 0xd0, 0x07, 0x3e, 0x51, 0xa4, 0xa0, 0x3d,
  0x7a, 0x00, 0x1b, 0x3e, 0x0c, 0xec, 0xd2, 0xbd, 0xa6, 0xd8, 0x65, 0xbe,
  0x13, 0xbf, 0xc6, 0x3d, 0x96, 0xdd, 0x2a, 0xbd, 0x2d, 0xa9, 0x8c, 0x3c,
  0xa2, 0xab, 0xd9, 0xbd, 0xc9, 0x82, 0x94, 0xbd, 0x7a, 0x9f, 0x05, 0x3d,
  0x20, 0xa4, 0xa5, 0xbc, 0xf9, 0xdb, 0xe2, 0xbd, 0x7f, 0x52, 0x3c, 0xbe,
  0xbc, 0x45, 0x69, 0xbd, 0x17, 0xd7, 0x99, 0xbd, 0xcb, 0x90, 0x9b, 0xbd,
  0x26, 0x38, 0x30, 0xbe, 0x18, 0xc9, 0xcd, 0x3c, 0x65, 0x9c, 0xf1, 0xbd,
  0x6a, 0x68, 0x8c, 0xbe, 0x7b, 0xd7, 0x89, 0xbe, 0x37, 0xf7, 0x3d, 0xbe,
  0x02, 0x6d, 0x1f, 0xbe, 0x1c, 0xc5, 0xc9, 0xbd, 0xb9, 0xe9, 0x60, 0xbe,
  0xbb, 0xde, 0xe3, 0xbd, 0x99, 0x67, 0xb8, 0x3d, 0xed, 0xc4, 0x86, 0xbe,
  0xab, 0x66, 0x5e, 0x3c, 0x05, 0xe5, 0x19, 0xbe, 0x72, 0x7f, 0x0f, 0x3d,
  0x3d, 0xeb, 0xed, 0x3d, 0x0d, 0xc1, 0x3d, 0xbe, 0x1c, 0x9f, 0xd5, 0xbc,
  0xd7, 0xd5, 0x03, 0x3e, 0x00, 0x81, 0x60, 0xbe, 0xb7, 0xb6, 0xd5, 0xbd,
  0x5f, 0x57, 0x0a, 0x3e, 0xb6, 0x2e, 0xd2, 0xbd, 0x7a, 0x5d, 0x69, 0xbd,
  0x09, 0x16, 0xce, 0xbd, 0xeb, 0x66, 0x4a, 0x3d, 0x23, 0x6e, 0xad, 0xbd,
  0xac, 0x88, 0x24, 0x3e, 0x43, 0xda, 0xfc, 0xbd, 0xdc, 0xdc, 0x68, 0xbd,
  0x91, 0x33, 0x71, 0xbe, 0xa5, 0xa5, 0x15, 0xbe, 0x47, 0x67, 0x1c, 0xbe,
  0xb2, 0x55, 0x5e, 0xbe, 0x87, 0x10, 0x63, 0xbd, 0xa8, 0xdb, 0x42, 0xbe,
  0xfc, 0x26, 0xea, 0xbd, 0x5a, 0xe8, 0x7b, 0x3c, 0xe5, 0x98, 0xc8, 0x3d,
  0x2e, 0x61, 0xd8, 0x3d, 0x6d, 0x5e, 0x08, 0x3e, 0xbb, 0xfa, 0xeb, 0xbd,
  0xa3, 0xb4, 0x5e, 0xbe, 0x10, 0x45, 0xbf, 0x3c, 0x8f, 0x07, 0x59, 0xbe,
  0xa7, 0x93, 0x8b, 0xbd, 0x85, 0xaf, 0x52, 0xbd, 0x93, 0x98, 0x0c, 0xbe,
  0xdc, 0x09, 0x9a, 0x3d, 0xa5, 0x90, 0x62, 0xbe, 0x08, 0xee, 0x9f, 0x3d,
  0x0e, 0x5b, 0x48, 0xbe, 0x5e, 0xf2, 0x6c, 0xbe, 0x96, 0x4b, 0xe6, 0x3d,
  0x4a, 0x46, 0x3e, 0x3e, 0x89, 0xcf, 0x40, 0xbe, 0x56, 0x54, 0x58, 0x3b,
  0x1b, 0x62, 0x38, 0xbe, 0x93, 0x3f, 0xba, 0xbd, 0xe2, 0x1f, 0x95, 0x3d,
  0x68, 0x11, 0x40, 0xbd, 0x5a, 0x7d, 0x56, 0xbe, 0x24, 0x47, 0x7f, 0xbb,
  0x89, 0xc0, 0x3f, 0x3e, 0x41, 0xae, 0xb9, 0x3d, 0xea, 0x64, 0x24, 0x3e,
  0x7b, 0x5f, 0x19, 0x3e, 0xb1, 0x3e, 0xce, 0xbd, 0xa1, 0x3d, 0x14, 0xbe,
  0xbe, 0x88, 0x49, 0xbe, 0x23, 0x49, 0x4e, 0x3d, 0x20, 0x79, 0x4a, 0xbd,
  0x2d, 0xd8, 0xeb, 0x3c, 0x9f, 0xae, 0xca, 0xbc, 0xf8, 0x62, 0x83, 0xbd,
  0x0b, 0x14, 0xb2, 0xbd, 0xa9, 0x8e, 0xdb, 0xbc, 0x66, 0x7f, 0x22, 0xbe,
  0x3a, 0xe4, 0xb3, 0xbd, 0xeb, 0x82, 0xa3, 0xbc, 0xa2, 0x49, 0xe2, 0xbd,
  0x59, 0x5c, 0x2e, 0xbd, 0x83, 0xc0, 0xc5, 0x3d, 0x35, 0x8f, 0xd9, 0xbd,
  0x2d, 0x4b, 0xf8, 0xbd, 0x7d, 0x22, 0x3d, 0xbe, 0x63, 0xea, 0x35, 0xbe,
  0x70, 0x75, 0x49, 0xbe, 0x66, 0x9a, 0xd9, 0xba, 0xf8, 0x62, 0xbd, 0xbd,
  0x17, 0x9c, 0x9f, 0x3d, 0x08, 0xd4, 0xb7, 0xbc, 0x75, 0x9d, 0x31, 0xbe,
  0x34, 0x59, 0x1d, 0xbd, 0xdd, 0x32, 0x9a, 0xbc, 0x04, 0xbf, 0xba, 0xbd,
  0xc9, 0x92, 0x9d, 0x3d, 0x2a, 0x5b, 0x02, 0xbd, 0xfb, 0xfa, 0xb8, 0xbd,
  0xae, 0x21, 0x37, 0xbd, 0x1f, 0x02, 0xb6, 0xbe, 0xd4, 0x3c, 0x29, 0xbe,
  0x26, 0x58, 0xaf, 0xbd, 0x63, 0xd1, 0x75, 0xbc, 0x05, 0xec, 0x23, 0x3f,
  0x05, 0xe8, 0xe7, 0x3c, 0x02, 0xea, 0xbd, 0xbd, 0x8d, 0x26, 0x58, 0x3d,
  0x02, 0xe0, 0x73, 0x3e, 0x14, 0x08, 0x9c, 0xbd, 0x19, 0xf2, 0xc4, 0xbc,
  0x09, 0x51, 0x1e, 0xbe, 0x74, 0x24, 0x06, 0xbd, 0x05, 0x31, 0x41, 0xbe,
  0x54, 0x34, 0x32, 0x3e, 0x2d, 0x46, 0x79, 0x3d, 0x12, 0x22, 0xd1, 0xbe,
  0xf1, 0x3e, 0x32, 0x3e, 0x10, 0x68, 0x28, 0xbe, 0x28, 0x35, 0xa1, 0xbd,
  0x20, 0x36, 0x0b, 0x3d, 0x9c, 0x03, 0x19, 0x3f, 0xb5, 0x6c, 0xe0, 0xbe,
  0xea, 0x54, 0xe2, 0xbd, 0xcc, 0x82, 0x28, 0xbe, 0x62, 0xd2, 0x0b, 0x3f,
  0x86, 0x9e, 0xa5, 0xbc, 0xb1, 0xc5, 0x11, 0xbd, 0x32, 0x08, 0x99, 0xbb,
  0xfc, 0x0d, 0x8e, 0x3d, 0x6c, 0x12, 0xb7, 0xbe, 0xcc, 0x5e, 0xce, 0xbc,
  0x39, 0x61, 0x50, 0x3c, 0x1b, 0xa5, 0xb5, 0xbb, 0x60, 0xce, 0x2a, 0xbc,
  0x18, 0xb6, 0xe3, 0xbd, 0x45, 0x0d, 0xc7, 0xbe, 0xce, 0xcc, 0x39, 0x3e,
  0x93, 0x06, 0x48, 0xbe, 0x6e, 0x8f, 0x39, 0xbe, 0x80, 0x6d, 0x41, 0xbe,
  0x28, 0xcd, 0xf7, 0x3e, 0x0c, 0x6f, 0xf6, 0xbd, 0x27, 0x24, 0x1a, 0x3e,
  0x56, 0xfd, 0x1a, 0xbf, 0x01, 0x5e, 0x9c, 0x3c, 0x9b, 0xa0, 0xd0, 0xbd,
  0x27, 0xfa, 0x63, 0xbd, 0xf8, 0xcd, 0x3a, 0x3e, 0xf6, 0xcc, 0x69, 0x3e,
  0x8c, 0xca, 0xd1, 0x3d, 0xd0, 0xcf, 0x32, 0xbe, 0x55, 0x62, 0xcb, 0xbe,
  0xa3, 0x8f, 0x9b, 0xbd, 0xb9, 0x55, 0x8e, 0xbd, 0x34, 0xe0, 0x88, 0xbe,
  0xa9, 0x66, 0x3a, 0xbd, 0x50, 0x6d, 0x12, 0x3e, 0x1b, 0xf3, 0xde, 0xbd,
  0x58, 0x8a, 0x13, 0x3e, 0x2e, 0x84, 0xca, 0xbd, 0xab, 0xdf, 0xce, 0xbd,
  0x8f, 0x75, 0x82, 0xbe, 0x85, 0x70, 0x00, 0xbd, 0x3f, 0x93, 0x1e, 0x3e,
  0x44, 0x7f, 0xff, 0x3d, 0xbb, 0x28, 0x18, 0x3e, 0x1d, 0x40, 0x79, 0xbe,
  0xa5, 0x24, 0x54, 0x3d, 0xe6, 0xd4, 0xae, 0x3c, 0x7b, 0xf3, 0x0c, 0xbe,
  0x2a, 0xd3, 0x92, 0x3d, 0x38, 0xd3, 0x5b, 0xbe, 0x23, 0x17, 0xae, 0xbe,
  0xbe, 0x29, 0x2b, 0xbd, 0xb3, 0x3a, 0x28, 0x3d, 0x50, 0xcc, 0x95, 0xbe,
  0xae, 0xa5, 0x5d, 0x3d, 0x8e, 0xc0, 0x62, 0x3d, 0x77, 0xe6, 0x86, 0xbc,
  0xef, 0x0c, 0x94, 0x3d, 0x59, 0x5d, 0x91, 0x3d, 0xf3, 0xfa, 0x85, 0x3e,
  0xbd, 0xed, 0x60, 0xbe, 0x8d, 0x64, 0x83, 0xbe, 0x8a, 0x20, 0xd8, 0x3c,
  0x11, 0xbd, 0xcf, 0x3d, 0x1f, 0x59, 0x8a, 0xbe, 0xc3, 0xf9, 0xbe, 0xbd,
  0xba, 0x73, 0xa3, 0xbe, 0xb5, 0xd5, 0x6d, 0xbe, 0xa8, 0x60, 0x81, 0xbe,
  0x18, 0x78, 0xe9, 0xbe, 0x32, 0x6b, 0x0b, 0x3e, 0x7d, 0x97, 0xa6, 0xbe,
  0x2c, 0xca, 0xfc, 0x3d, 0x34, 0x0a, 0xe6, 0x3d, 0x69, 0x71, 0x4d, 0xbe,
  0xc5, 0xfe, 0xbb, 0x3c, 0x5f, 0xfe, 0x6f, 0xbe, 0x7c, 0x5d, 0x6b, 0xbe,
  0xcf, 0x30, 0xaf, 0xbd, 0x90, 0xdc, 0x80, 0x3e, 0x71, 0xe1, 0xf5, 0xbe,
  0xbe, 0x1a, 0x0c, 0xbf, 0x00, 0x32, 0x0f, 0xbe, 0x03, 0xb7, 0x7e, 0xbe,
  0x46, 0xfe, 0xff, 0xff, 0x10, 0x00, 0x00, 0x00, 0x05, 0x00, 0x00, 0x00,
  0x14, 0x00, 0x00, 0x00, 0x2c, 0x00, 0x00, 0x00, 0x02, 0x00, 0x00, 0x00,
  0x10, 0x00, 0x00, 0x00, 0x70, 0x00, 0x00, 0x00, 0x17, 0x00, 0x00, 0x00,
  0x73, 0x65, 0x71, 0x75, 0x65, 0x6e, 0x74, 0x69, 0x61, 0x6c, 0x2f, 0x64,
  0x65, 0x6e, 0x73, 0x65, 0x2f, 0x4d, 0x61, 0x74, 0x4d, 0x75, 0x6c, 0x00,
  0x34, 0xfe, 0xff, 0xff, 0x2a, 0xff, 0xff, 0xff, 0x04, 0x00, 0x00, 0x00,
  0x08, 0x00, 0x00, 0x00, 0xff, 0xff, 0xff, 0xff, 0x70, 0x00, 0x00, 0x00,
  0x00, 0x00, 0x0e, 0x00, 0x18, 0x00, 0x08, 0x00, 0x07, 0x00, 0x0c, 0x00,
  0x10, 0x00, 0x14, 0x00, 0x0e, 0x00, 0x00, 0x00, 0x00, 0x00, 0x00, 0x02,
  0x10, 0x00, 0x00, 0x00, 0x04, 0x00, 0x00, 0x00, 0x10, 0x00, 0x00, 0x00,
  0x2c, 0x00, 0x00, 0x00, 0x01, 0x00, 0x00, 0x00, 0x02, 0x00, 0x00, 0x00,
  0x18, 0x00, 0x00, 0x00, 0x73, 0x65, 0x71, 0x75, 0x65, 0x6e, 0x74, 0x69,
  0x61, 0x6c, 0x2f, 0x66, 0x6c, 0x61, 0x74, 0x74, 0x65, 0x6e, 0x2f, 0x43,
  0x6f, 0x6e, 0x73, 0x74, 0x00, 0x00, 0x00, 0x00, 0x9c, 0xfe, 0xff, 0xff,
  0x92, 0xff, 0xff, 0xff, 0x04, 0x00, 0x00, 0x00, 0x10, 0x00, 0x00, 0x00,
  0xf5, 0xb1, 0xb9, 0x3f, 0x0d, 0x00, 0x60, 0xbe, 0x23, 0x6d, 0x49, 0xc0,
  0x2d, 0x28, 0x44, 0xbe, 0x0a, 0xff, 0xff, 0xff, 0x10, 0x00, 0x00, 0x00,
  0x03, 0x00, 0x00, 0x00, 0x10, 0x00, 0x00, 0x00, 0x3c, 0x00, 0x00, 0x00,
  0x01, 0x00, 0x00, 0x00, 0x04, 0x00, 0x00, 0x00, 0x29, 0x00, 0x00, 0x00,
  0x73, 0x65, 0x71, 0x75, 0x65, 0x6e, 0x74, 0x69, 0x61, 0x6c, 0x2f, 0x64,
  0x65, 0x6e, 0x73, 0x65, 0x5f, 0x31, 0x2f, 0x42, 0x69, 0x61, 0x73, 0x41,
  0x64, 0x64, 0x2f, 0x52, 0x65, 0x61, 0x64, 0x56, 0x61, 0x72, 0x69, 0x61,
  0x62, 0x6c, 0x65, 0x4f, 0x70, 0x00, 0x00, 0x00, 0x60, 0xff, 0xff, 0xff,
  0x00, 0x00, 0x06, 0x00, 0x08, 0x00, 0x04, 0x00, 0x06, 0x00, 0x00, 0x00,
  0x04, 0x00, 0x00, 0x00, 0x40, 0x00, 0x00, 0x00, 0xc5, 0xdc, 0xdb, 0xbe,
  0xa6, 0x50, 0x11, 0xbe, 0x80, 0x51, 0x93, 0xbe, 0xf6, 0xb2, 0x88, 0xbe,
  0x89, 0xa9, 0x03, 0xbe, 0x60, 0xde, 0xa6, 0xbe, 0x41, 0x3e, 0x54, 0xbe,
  0x1e, 0xab, 0xd8, 0xbe, 0x87, 0xe0, 0x11, 0xbc, 0x2f, 0x97, 0x03, 0x40,
  0x7c, 0x8e, 0x3e, 0x3c, 0x01, 0xd0, 0xc4, 0xbe, 0x5a, 0xe3, 0xab, 0xbe,
  0x45, 0xaf, 0x7e, 0xbe, 0x24, 0x2a, 0x37, 0xbe, 0x5c, 0x2b, 0x13, 0x3f,
  0xae, 0xff, 0xff, 0xff, 0x10, 0x00, 0x00, 0x00, 0x02, 0x00, 0x00, 0x00,
  0x10, 0x00, 0x00, 0x00, 0x3c, 0x00, 0x00, 0x00, 0x01, 0x00, 0x00, 0x00,
  0x10, 0x00, 0x00, 0x00, 0x27, 0x00, 0x00, 0x00, 0x73, 0x65, 0x71, 0x75,
  0x65, 0x6e, 0x74, 0x69, 0x61, 0x6c, 0x2f, 0x64, 0x65, 0x6e, 0x73, 0x65,
  0x2f, 0x42, 0x69, 0x61, 0x73, 0x41, 0x64, 0x64, 0x2f, 0x52, 0x65, 0x61,
  0x64, 0x56, 0x61, 0x72, 0x69, 0x61, 0x62, 0x6c, 0x65, 0x4f, 0x70, 0x00,
  0x04, 0x00, 0x06, 0x00, 0x04, 0x00, 0x00, 0x00, 0x00, 0x00, 0x0e, 0x00,
  0x14, 0x00, 0x04, 0x00, 0x00, 0x00, 0x08, 0x00, 0x0c, 0x00, 0x10, 0x00,
  0x0e, 0x00, 0x00, 0x00, 0x10, 0x00, 0x00, 0x00, 0x01, 0x00, 0x00, 0x00,
  0x1c, 0x00, 0x00, 0x00, 0x2c, 0x00, 0x00, 0x00, 0x04, 0x00, 0x00, 0x00,
  0x01, 0x00, 0x00, 0x00, 0x40, 0x00, 0x00, 0x00, 0x03, 0x00, 0x00, 0x00,
  0x01, 0x00, 0x00, 0x00, 0x0c, 0x00, 0x00, 0x00, 0x63, 0x6f, 0x6e, 0x76,
  0x32, 0x64, 0x5f, 0x69, 0x6e, 0x70, 0x75, 0x74, 0x00, 0x00, 0x00, 0x00,
  0xfc, 0xff, 0xff, 0xff, 0x04, 0x00, 0x04, 0x00, 0x04, 0x00, 0x00, 0x00

};


unsigned int model_tflite_len = 12384;// Fill the int in `src/model.cc` here